{
  "version": "1.0",
  "truncation": null,
  "padding": null,
  "added_tokens": [
    {
      "id": 0,
      "content": "<s>",
      "single_word": false,
      "lstrip": false,
      "rstrip": false,
      "normalized": false,
      "special": true
    },
    {
      "id": 1,
      "content": "<pad>",
      "single_word": false,
      "lstrip": false,
      "rstrip": false,
      "normalized": false,
      "special": true
    },
    {
      "id": 2,
      "content": "</s>",
      "single_word": false,
      "lstrip": false,
      "rstrip": false,
      "normalized": false,
      "special": true
    },
    {
      "id": 3,
      "content": "<unk>",
      "single_word": false,
      "lstrip": false,
      "rstrip": false,
      "normalized": false,
      "special": true
    }
  ],
  "normalizer": null,
  "pre_tokenizer": null,
  "post_processor": null,
  "decoder": null,
  "model": {
    "type": "BPE",
    "dropout": null,
    "unk_token": null,
    "continuing_subword_prefix": null,
    "end_of_word_suffix": null,
    "fuse_unk": false,
    "byte_fallback": false,
    "ignore_merges": false,
    "vocab": {
      "<s>": 0,
      "<pad>": 1,
      "</s>": 2,
      "<unk>": 3,
      " ": 4,
      "!": 5,
      "\"": 6,
      "$": 7,
      "&": 8,
      "'": 9,
      "(": 10,
      ")": 11,
      "*": 12,
      ",": 13,
      "-": 14,
      ".": 15,
      "0": 16,
      "1": 17,
      "2": 18,
      "3": 19,
      "4": 20,
      "5": 21,
      "6": 22,
      "7": 23,
      "8": 24,
      "9": 25,
      ":": 26,
      ";": 27,
      "?": 28,
      "A": 29,
      "B": 30,
      "C": 31,
      "D": 32,
      "E": 33,
      "F": 34,
      "G": 35,
      "H": 36,
      "I": 37,
      "J": 38,
      "K": 39,
      "L": 40,
      "M": 41,
      "N": 42,
      "O": 43,
      "P": 44,
      "Q": 45,
      "R": 46,
      "S": 47,
      "T": 48,
      "U": 49,
      "V": 50,
      "W": 51,
      "X": 52,
      "Y": 53,
      "Z": 54,
      "[": 55,
      "]": 56,
      "_": 57,
      "a": 58,
      "b": 59,
      "c": 60,
      "d": 61,
      "e": 62,
      "f": 63,
      "g": 64,
      "h": 65,
      "i": 66,
      "j": 67,
      "k": 68,
      "l": 69,
      "m": 70,
      "n": 71,
      "o": 72,
      "p": 73,
      "q": 74,
      "r": 75,
      "s": 76,
      "t": 77,
      "u": 78,
      "v": 79,
      "w": 80,
      "x": 81,
      "y": 82,
      "z": 83,
      "e ": 84,
      " t": 85,
      "s ": 86,
      " th": 87,
      "d ": 88,
      "t ": 89,
      "in": 90,
      ", ": 91,
      "er": 92,
      "an": 93,
      " the ": 94,
      "y ": 95,
      "on": 96,
      "en": 97,
      "ou": 98,
      "ing": 99,
      "al": 100,
      "or": 101,
      "ar": 102,
      "of": 103,
      "th": 104,
      "ed ": 105,
      "o ": 106,
      ". ": 107,
      "hi": 108,
      " , ": 109,
      " s": 110,
      "and ": 111,
      "re": 112,
      "ing ": 113,
      "at ": 114,
      "at": 115,
      "st": 116,
      "a ": 117,
      "ow": 118,
      "er ": 119,
      "om": 120,
      "el": 121,
      "wh": 122,
      "of ": 123,
      "es ": 124,
      "l ": 125,
      "- ": 126,
      "as": 127,
      "ch": 128,
      "in ": 129,
      "; ": 130,
      "es": 131,
      "ha": 132,
      " to ": 133,
      "li": 134,
      "wi": 135,
      "ly ": 136,
      "as ": 137,
      "gh": 138,
      "is ": 139,
      "\" ": 140,
      "e , ": 141,
      "en ": 142,
      "for": 143,
      "his ": 144,
      "he ": 145,
      "it ": 146,
      "' ": 147,
      " that ": 148,
      "on ": 149,
      "ir": 150,
      "ea": 151,
      "it": 152,
      "is": 153,
      "an ": 154,
      "ere ": 155,
      "ol": 156,
      "ck": 157,
      "il": 158,
      "em": 159,
      "ur": 160,
      "un": 161,
      "ed": 162,
      "with": 163,
      "os": 164,
      "be": 165,
      "of the ": 166,
      "le ": 167,
      "s , ": 168,
      "ev": 169,
      "and": 170,
      "bu": 171,
      "ri": 172,
      " . ": 173,
      "ve ": 174,
      "no": 175,
      "I ": 176,
      "ra": 177,
      "se": 178,
      "' s ": 179,
      "ti": 180,
      "oo": 181,
      "up": 182,
      "am": 183,
      "whal": 184,
      "was ": 185,
      "ce ": 186,
      "ab": 187,
      "ch ": 188,
      "ay ": 189,
      "him": 190,
      "di": 191,
      "ag": 192,
      "ow ": 193,
      " the s": 194,
      "-- ": 195,
      "qu": 196,
      "e th": 197,
      " to": 198,
      "ro": 199,
      " the": 200,
      "you": 201,
      "bo": 202,
      "ear": 203,
      "all": 204,
      "whi": 205,
      "n ": 206,
      "all ": 207,
      "us": 208,
      "id": 209,
      "fr": 210,
      "ght ": 211,
      " this ": 212,
      "oun": 213,
      "int": 214,
      "or ": 215,
      "ap": 216,
      "one ": 217,
      "! ": 218,
      "with ": 219,
      "ee": 220,
      "ent": 221,
      "ul": 222,
      "from": 223,
      "in the ": 224,
      "ld ": 225,
      "f ": 226,
      "ac": 227,
      "con": 228,
      "be ": 229,
      "not ": 230,
      "ver": 231,
      "al ": 232,
      "k ": 233,
      "ad": 234,
      "p ": 235,
      "ke ": 236,
      "com": 237,
      "per": 238,
      "t , ": 239,
      "ec": 240,
      "g ": 241,
      "pl": 242,
      "ic": 243,
      "for ": 244,
      "but ": 245,
      "im": 246,
      "by ": 247,
      "ough": 248,
      "po": 249,
      "tt": 250,
      "out ": 251,
      ", the ": 252,
      "ir ": 253,
      "ta": 254,
      "bl": 255,
      "sh": 256,
      "um": 257,
      "et ": 258,
      "ent ": 259,
      " , and ": 260,
      "hea": 261,
      "ess ": 262,
      "e . ": 263,
      "ould ": 264,
      "ther ": 265,
      ", th": 266,
      "have ": 267,
      "ex": 268,
      " st": 269,
      "ous ": 270,
      "ck ": 271,
      "Bu": 272,
      "Wh": 273,
      "mor": 274,
      "th ": 275,
      "es , ": 276,
      "had ": 277,
      "ast ": 278,
      "et": 279,
      "whale ": 280,
      "pre": 281,
      "sel": 282,
      "d , ": 283,
      "s . ": 284,
      "ay": 285,
      "were ": 286,
      "ome ": 287,
      "so ": 288,
      "; and ": 289,
      "our": 290,
      "de": 291,
      "ight ": 292,
      "are ": 293,
      "you ": 294,
      "St": 295,
      "him ": 296,
      "? ": 297,
      "old ": 298,
      "ed , ": 299,
      "a s": 300,
      "The ": 301,
      "cl": 302,
      "fl": 303,
      "ma": 304,
      "Th": 305,
      "sp": 306,
      "ub": 307,
      "ose ": 308,
      "ost ": 309,
      "par": 310,
      "ish": 311,
      "s of ": 312,
      "aw": 313,
      "si": 314,
      "wor": 315,
      "own ": 316,
      "ati": 317,
      "now ": 318,
      "b ": 319,
      "my ": 320,
      "har": 321,
      "me ": 322,
      "to ": 323,
      " to the ": 324,
      "m ": 325,
      "ever": 326,
      "ted ": 327,
      "ter": 328,
      "der": 329,
      "But ": 330,
      "e the ": 331,
      "uch ": 332,
      "on the ": 333,
      "Aha": 334,
      "from ": 335,
      "gre": 336,
      " their ": 337,
      "any ": 338,
      "at the ": 339,
      "like ": 340,
      " they ": 341,
      "ong": 342,
      ".\" ": 343,
      "est ": 344,
      " them": 345,
      "ai": 346,
      "man ": 347,
      "ew": 348,
      "--": 349,
      "most ": 350,
      "af": 351,
      " there ": 352,
      "mo": 353,
      ", that ": 354,
      "no ": 355,
      "ru": 356,
      "ar ": 357,
      "ain": 358,
      "ant": 359,
      "ing the ": 360,
      "ye ": 361,
      "ell": 362,
      "op": 363,
      "ever ": 364,
      "ther": 365,
      "le": 366,
      "wil": 367,
      "ill ": 368,
      "ter ": 369,
      "ame ": 370,
      "ang": 371,
      "by": 372,
      "y , ": 373,
      "ous": 374,
      "ough ": 375,
      "ally ": 376,
      "able ": 377,
      "which ": 378,
      "An": 379,
      "what ": 380,
      "end": 381,
      "ust ": 382,
      "ound ": 383,
      "now": 384,
      "pro": 385,
      "war": 386,
      "anc": 387,
      "its ": 388,
      "cre": 389,
      "ud": 390,
      "we ": 391,
      "over": 392,
      "ce": 393,
      "ood ": 394,
      " se": 395,
      "st ": 396,
      "more ": 397,
      "ed to ": 398,
      "other ": 399,
      "would ": 400,
      "if": 401,
      "ese ": 402,
      "ers ": 403,
      "ak": 404,
      "hear": 405,
      "ell ": 406,
      "hip ": 407,
      "out": 408,
      "ds ": 409,
      "wat": 410,
      "seem": 411,
      "vi": 412,
      "ong ": 413,
      "from the ": 414,
      "ght": 415,
      "est": 416,
      "tain ": 417,
      "ely ": 418,
      "go": 419,
      "en , ": 420,
      "when ": 421,
      "o the ": 422,
      "gr": 423,
      "ed the ": 424,
      "ail": 425,
      "ance ": 426,
      "hip": 427,
      "ing , ": 428,
      "ast": 429,
      "te ": 430,
      "ble ": 431,
      "loo": 432,
      "man": 433,
      "pr": 434,
      "ill": 435,
      ". I": 436,
      "fir": 437,
      "ine ": 438,
      "e , and ": 439,
      "up ": 440,
      "mat": 441,
      "sid": 442,
      "ov": 443,
      "Whal": 444,
      "Ahab ": 445,
      "us ": 446,
      "and the ": 447,
      "our ": 448,
      "very ": 449,
      "ant ": 450,
      "ome": 451,
      "boat ": 452,
      "Qu": 453,
      "gl": 454,
      "h ": 455,
      "who ": 456,
      "que": 457,
      "own": 458,
      "' t": 459,
      "ons ": 460,
      "of his ": 461,
      "s , and ": 462,
      "ain ": 463,
      "been ": 464,
      "do": 465,
      "ity ": 466,
      "only ": 467,
      "urn": 468,
      "head ": 469,
      "car": 470,
      "se ": 471,
      " sh": 472,
      "if ": 473,
      "and th": 474,
      "!\" ": 475,
      "way ": 476,
      " tim": 477,
      "ind": 478,
      "of s": 479,
      "ey": 480,
      "befor": 481,
      "ful": 482,
      "mar": 483,
      "as the ": 484,
      "the ": 485,
      "will ": 486,
      "And ": 487,
      "cr": 488,
      "iv": 489,
      "ree ": 490,
      "tic": 491,
      "ound": 492,
      "your": 493,
      "ig": 494,
      "self ": 495,
      "co": 496,
      "ated ": 497,
      "ack": 498,
      "cap": 499,
      "eel": 500,
      "some ": 501,
      " these ": 502,
      "great ": 503,
      "king ": 504,
      "so": 505,
      "thing ": 506,
      "pres": 507,
      "ttle ": 508,
      "od ": 509,
      "with the ": 510,
      "av": 511,
      "pos": 512,
      "oll": 513,
      "cri": 514,
      "by the ": 515,
      "wo ": 516,
      "str": 517,
      "ess": 518,
      "HA": 519,
      "must ": 520,
      "ut": 521,
      "her ": 522,
      "ious ": 523,
      "sea ": 524,
      " them ": 525,
      "Cap": 526,
      "ing s": 527,
      "ass": 528,
      "er , ": 529,
      ". \" ": 530,
      "ness ": 531,
      "ings ": 532,
      "for the ": 533,
      "ER": 534,
      "me": 535,
      "ure ": 536,
      "E ": 537,
      "ou ": 538,
      "ate ": 539,
      "fa": 540,
      "men ": 541,
      "ks ": 542,
      "t of ": 543,
      "in his ": 544,
      "Stub": 545,
      "cor": 546,
      "dis": 547,
      "t the ": 548,
      "eeque": 549,
      "aid ": 550,
      "Queeque": 551,
      ". But ": 552,
      "ew ": 553,
      "pec": 554,
      "harpo": 555,
      "fi": 556,
      "; but ": 557,
      "has ": 558,
      ".\" \" ": 559,
      "upon ": 560,
      "ad ": 561,
      "fish": 562,
      "sw": 563,
      " thr": 564,
      " those ": 565,
      "ence ": 566,
      "here ": 567,
      "over ": 568,
      "' s": 569,
      "br": 570,
      "it , ": 571,
      "und": 572,
      "can": 573,
      "ts ": 574,
      "into ": 575,
      "ff": 576,
      ". A": 577,
      "little ": 578,
      "ly": 579,
      "on , ": 580,
      "lo": 581,
      "tain": 582,
      "off": 583,
      "do ": 584,
      "down ": 585,
      "where ": 586,
      "Whale ": 587,
      "long ": 588,
      ". H": 589,
      "lif": 590,
      "ey ": 591,
      "cont": 592,
      "perm ": 593,
      "equ": 594,
      "her": 595,
      "ind ": 596,
      "ern": 597,
      "yet ": 598,
      " some ": 599,
      ", t": 600,
      "bre": 601,
      "lea": 602,
      "may ": 603,
      "ash": 604,
      "ing to ": 605,
      "ob": 606,
      "ge ": 607,
      "o , ": 608,
      "of a ": 609,
      "?\" ": 610,
      "pp": 611,
      "ays ": 612,
      "' t ": 613,
      "last ": 614,
      "which": 615,
      "while ": 616,
      "om ": 617,
      "into the ": 618,
      ". Th": 619,
      "iti": 620,
      "hand": 621,
      "vo": 622,
      " . \" ": 623,
      "ation ": 624,
      "and s": 625,
      "il ": 626,
      "age ": 627,
      "s the ": 628,
      "ving ": 629,
      "ard ": 630,
      "ul ": 631,
      "comm": 632,
      "pi": 633,
      "mad": 634,
      "again": 635,
      "Star": 636,
      "every ": 637,
      "coun": 638,
      "- s": 639,
      "ard": 640,
      ". The ": 641,
      " to be ": 642,
      "your ": 643,
      "ci": 644,
      "cur": 645,
      "des": 646,
      "por": 647,
      "eng": 648,
      "ing his ": 649,
      "tim": 650,
      "cas": 651,
      "some": 652,
      "did ": 653,
      "eep": 654,
      "ty ": 655,
      "dar": 656,
      ". S": 657,
      "could ": 658,
      "dea": 659,
      "before ": 660,
      "ath": 661,
      "mi": 662,
      "en the ": 663,
      "less ": 664,
      "ca": 665,
      "other": 666,
      "su": 667,
      "in a ": 668,
      "Captain ": 669,
      "Starbu": 670,
      "upon the ": 671,
      "inter": 672,
      "with a ": 673,
      "go ": 674,
      "kn": 675,
      "ph": 676,
      "; the ": 677,
      "res": 678,
      "( ": 679,
      "sl": 680,
      "inst": 681,
      "ack ": 682,
      "cu": 683,
      "ER ": 684,
      "\" s": 685,
      "dy ": 686,
      "tion ": 687,
      "all the ": 688,
      "day ": 689,
      "hand ": 690,
      "how": 691,
      "lik": 692,
      "ole ": 693,
      "we": 694,
      ". N": 695,
      "can ": 696,
      "ful ": 697,
      "hel": 698,
      "mer": 699,
      "ked ": 700,
      "not": 701,
      "crew": 702,
      "first ": 703,
      "bel": 704,
      "gg": 705,
      "mon": 706,
      "es of ": 707,
      "old": 708,
      "about ": 709,
      "app": 710,
      "Ahab": 711,
      "S ": 712,
      "hor": 713,
      "ry ": 714,
      "was": 715,
      "ho": 716,
      "know": 717,
      "oul": 718,
      "ought ": 719,
      "white ": 720,
      "dra": 721,
      "much ": 722,
      "ne": 723,
      "s and ": 724,
      "still ": 725,
      "good ": 726,
      "might ": 727,
      "s to ": 728,
      "again ": 729,
      "after ": 730,
      "Pequ": 731,
      "whales ": 732,
      "ic ": 733,
      "It ": 734,
      "ge": 735,
      "ship": 736,
      "ck , ": 737,
      "end ": 738,
      "; th": 739,
      "lar": 740,
      "las": 741,
      "to": 742,
      "ook ": 743,
      "ake ": 744,
      "hal": 745,
      "ning ": 746,
      "it is ": 747,
      "boat": 748,
      "TH": 749,
      "TER ": 750,
      "come ": 751,
      "night ": 752,
      "ory ": 753,
      "world ": 754,
      "call": 755,
      "uck": 756,
      "ere": 757,
      "ed by ": 758,
      ". F": 759,
      "eet ": 760,
      "I s": 761,
      "round ": 762,
      ", to ": 763,
      "never ": 764,
      "cra": 765,
      "s t": 766,
      "almost ": 767,
      "it was ": 768,
      "am ": 769,
      "e that ": 770,
      "comp": 771,
      "gen": 772,
      "how ": 773,
      "min": 774,
      "ary ": 775,
      "him , ": 776,
      "harpoon": 777,
      "In": 778,
      "down": 779,
      "ure": 780,
      "att": 781,
      "Queequeg ": 782,
      "CHA": 783,
      " that": 784,
      "being ": 785,
      "; s": 786,
      "bow": 787,
      "ear ": 788,
      "What ": 789,
      ", and ": 790,
      "away ": 791,
      "cer": 792,
      "my": 793,
      "land ": 794,
      "ves ": 795,
      "ingly ": 796,
      ", they ": 797,
      "dr": 798,
      "many ": 799,
      "ink": 800,
      "dist": 801,
      "led ": 802,
      "ched ": 803,
      "eep ": 804,
      "self": 805,
      "made ": 806,
      "CHAP": 807,
      "bro": 808,
      "ved ": 809,
      "enc": 810,
      "en s": 811,
      "CHAPTER ": 812,
      ",\" s": 813,
      "fin": 814,
      "such ": 815,
      "low": 816,
      "ser": 817,
      ",\" ": 818,
      "ct": 819,
      "nat": 820,
      "a f": 821,
      "and t": 822,
      "see ": 823,
      "?\" \" ": 824,
      "bra": 825,
      "ive ": 826,
      "ail ": 827,
      "ies ": 828,
      "ship ": 829,
      "won": 830,
      "came ": 831,
      "ll ": 832,
      "well ": 833,
      "high": 834,
      "himself ": 835,
      "seemed ": 836,
      "IN": 837,
      "ni": 838,
      "pa": 839,
      "inv": 840,
      "el ": 841,
      "even ": 842,
      "right ": 843,
      "ently ": 844,
      "ously ": 845,
      "Stubb ": 846,
      "iz": 847,
      " two ": 848,
      "cried ": 849,
      "Pequod ": 850,
      "de ": 851,
      "k , ": 852,
      "der ": 853,
      "hun": 854,
      "once ": 855,
      "is the ": 856,
      "without ": 857,
      "evi": 858,
      "bar": 859,
      "den": 860,
      "s ; ": 861,
      "pul": 862,
      "s of the ": 863,
      "un ": 864,
      " three ": 865,
      " the same ": 866,
      "Sperm ": 867,
      "ist": 868,
      "long": 869,
      "ess , ": 870,
      "lish": 871,
      "strang": 872,
      "cir": 873,
      "hum": 874,
      "ye , ": 875,
      "ery ": 876,
      "I ' ": 877,
      "whale , ": 878,
      "aw ": 879,
      ": ": 880,
      "sin": 881,
      "e of ": 882,
      "off ": 883,
      "hap": 884,
      "qui": 885,
      "head": 886,
      ". It ": 887,
      "Whi": 888,
      "fac": 889,
      "pur": 890,
      "harpoone": 891,
      "au": 892,
      "a t": 893,
      "ber": 894,
      "eas": 895,
      "enti": 896,
      "th , ": 897,
      "jo": 898,
      "sm": 899,
      "water ": 900,
      "mom": 901,
      "but": 902,
      "chi": 903,
      "far ": 904,
      "gn": 905,
      "on ' t ": 906,
      "cal": 907,
      "lin": 908,
      "pass": 909,
      "rop": 910,
      "ting ": 911,
      "of that ": 912,
      "of this ": 913,
      "read": 914,
      " the ship ": 915,
      "like a ": 916,
      "ft ": 917,
      "red ": 918,
      "form": 919,
      "He ": 920,
      "ga": 921,
      "ow , ": 922,
      "whole ": 923,
      "bet": 924,
      "ward ": 925,
      "ling ": 926,
      "ered ": 927,
      "g , ": 928,
      "le , ": 929,
      "inc": 930,
      "t , and ": 931,
      "ish ": 932,
      "back": 933,
      "ying ": 934,
      "light ": 935,
      "beg": 936,
      "eviath": 937,
      "mil": 938,
      "pe": 939,
      "ran": 940,
      "sk": 941,
      "each ": 942,
      "mu": 943,
      "sed ": 944,
      "in this ": 945,
      "arm": 946,
      "for a ": 947,
      "ace ": 948,
      "land": 949,
      "ot ": 950,
      " that the ": 951,
      " time ": 952,
      "gener": 953,
      "betwe": 954,
      "Nant": 955,
      "he": 956,
      "h , ": 957,
      "me , ": 958,
      "oft": 959,
      " such ": 960,
      "had": 961,
      "under": 962,
      "look ": 963,
      "half ": 964,
      "bor": 965,
      "ering ": 966,
      "whalem": 967,
      "ough the ": 968,
      "life ": 969,
      "voy": 970,
      "Nantuck": 971,
      "D ": 972,
      "mast ": 973,
      "ere , ": 974,
      "ed in ": 975,
      "reg": 976,
      "ating ": 977,
      "after": 978,
      "pu": 979,
      "say ": 980,
      "sail": 981,
      " tow": 982,
      "ink ": 983,
      "ele": 984,
      "body ": 985,
      "ide ": 986,
      "part ": 987,
      "ick ": 988,
      ". And ": 989,
      "face ": 990,
      "Stubb": 991,
      "ion ": 992,
      "line ": 993,
      "sup": 994,
      " thou ": 995,
      "es the ": 996,
      "he had ": 997,
      "es , and ": 998,
      "caus": 999,
      "Starbuck ": 1000,
      "AN": 1001,
      "fre": 1002,
      " than ": 1003,
      "he was ": 1004,
      "I have ": 1005,
      "among": 1006,
      "will": 1007,
      "God ": 1008,
      "ach": 1009,
      "jec": 1010,
      "sub": 1011,
      " thing ": 1012,
      "consid": 1013,
      "But": 1014,
      "eyes ": 1015,
      "feel": 1016,
      "ret": 1017,
      "light": 1018,
      "ite ": 1019,
      "about": 1020,
      "circ": 1021,
      "te": 1022,
      " turn": 1023,
      " then ": 1024,
      "inde": 1025,
      "itud": 1026,
      "heav": 1027,
      "pri": 1028,
      "bul": 1029,
      " too ": 1030,
      "ears ": 1031,
      ", this ": 1032,
      "feet ": 1033,
      "round": 1034,
      "roll": 1035,
      "sor": 1036,
      "reas": 1037,
      "with his ": 1038,
      "ben": 1039,
      "flo": 1040,
      "There ": 1041,
      "--\" ": 1042,
      "full ": 1043,
      "Flas": 1044,
      "ber ": 1045,
      "mis": 1046,
      "an , ": 1047,
      "ed a ": 1048,
      ". T": 1049,
      "upon": 1050,
      "plac": 1051,
      "man , ": 1052,
      ",\" said ": 1053,
      "a st": 1054,
      "dou": 1055,
      "ken ": 1056,
      "let ": 1057,
      "in that ": 1058,
      "ed his ": 1059,
      "stri": 1060,
      "spec": 1061,
      "!-- ": 1062,
      "oc": 1063,
      "two ": 1064,
      "ue ": 1065,
      "s were ": 1066,
      ". O": 1067,
      "ham": 1068,
      "em ": 1069,
      "head , ": 1070,
      "ext": 1071,
      "draw": 1072,
      "ep": 1073,
      "near": 1074,
      " tak": 1075,
      "his t": 1076,
      "stand": 1077,
      " . A": 1078,
      "time ": 1079,
      "ation": 1080,
      "ah ": 1081,
      "bur": 1082,
      "dev": 1083,
      "just ": 1084,
      "or , ": 1085,
      ". B": 1086,
      "ise ": 1087,
      "ign": 1088,
      ". He ": 1089,
      "fur": 1090,
      "fri": 1091,
      "sur": 1092,
      "seen ": 1093,
      "ed , and ": 1094,
      "run": 1095,
      "ves": 1096,
      " so ": 1097,
      "ly , ": 1098,
      "emp": 1099,
      "place ": 1100,
      "THE ": 1101,
      "cab": 1102,
      "poor ": 1103,
      "O ": 1104,
      "leng": 1105,
      "to the ": 1106,
      "was the ": 1107,
      "one , ": 1108,
      "rema": 1109,
      "board ": 1110,
      "Sperm Whale ": 1111,
      "OR": 1112,
      "ded ": 1113,
      "ding ": 1114,
      "et , ": 1115,
      "gra": 1116,
      "know ": 1117,
      ", though ": 1118,
      "make ": 1119,
      "over the ": 1120,
      "and then ": 1121,
      ") ": 1122,
      "Mo": 1123,
      "du": 1124,
      "den ": 1125,
      "per ": 1126,
      "wr": 1127,
      "at last ": 1128,
      "es of the ": 1129,
      "dec": 1130,
      "any": 1131,
      "ular": 1132,
      "should ": 1133,
      ", there ": 1134,
      "mean": 1135,
      "crew ": 1136,
      "En": 1137,
      "Jon": 1138,
      "oar": 1139,
      "ped ": 1140,
      "s that ": 1141,
      "ers , ": 1142,
      "along": 1143,
      "ari": 1144,
      " , as ": 1145,
      "star": 1146,
      "stra": 1147,
      "dire": 1148,
      "natur": 1149,
      "del": 1150,
      "dly ": 1151,
      "a little ": 1152,
      "es and ": 1153,
      "both ": 1154,
      " seem": 1155,
      "under ": 1156,
      "ould": 1157,
      "inn": 1158,
      "him . ": 1159,
      "ical ": 1160,
      ", then ": 1161,
      "side ": 1162,
      " The ": 1163,
      "ion": 1164,
      "wind": 1165,
      "; for ": 1166,
      "whaling ": 1167,
      " their": 1168,
      "all s": 1169,
      "prec": 1170,
      "White ": 1171,
      "consider": 1172,
      "bed ": 1173,
      "ice ": 1174,
      "pit": 1175,
      "val": 1176,
      ". I ": 1177,
      "ows ": 1178,
      "as a ": 1179,
      "plan": 1180,
      "back ": 1181,
      "ea ": 1182,
      "found ": 1183,
      "giv": 1184,
      "when": 1185,
      "tion": 1186,
      "by D": 1187,
      "don ' t ": 1188,
      "ick": 1189,
      "men": 1190,
      "oce": 1191,
      "y to ": 1192,
      "in the s": 1193,
      "lim": 1194,
      "ular ": 1195,
      "heard ": 1196,
      "get ": 1197,
      "ight": 1198,
      "mou": 1199,
      "mid": 1200,
      "pen": 1201,
      "vis": 1202,
      "y t": 1203,
      " thy ": 1204,
      "ing that ": 1205,
      "what": 1206,
      "whose ": 1207,
      "chas": 1208,
      "oss": 1209,
      "ents ": 1210,
      "flu": 1211,
      "air": 1212,
      "air ": 1213,
      "gu": 1214,
      "rang": 1215,
      "sir ": 1216,
      "inf": 1217,
      "ined ": 1218,
      "ors ": 1219,
      " thee ": 1220,
      "ush": 1221,
      "possi": 1222,
      "fish ": 1223,
      "times ": 1224,
      "Ahab , ": 1225,
      "Moby D": 1226,
      "lat": 1227,
      "ways ": 1228,
      "in s": 1229,
      "order": 1230,
      "ed with ": 1231,
      "ing a ": 1232,
      "ster": 1233,
      "of the s": 1234,
      "nothing ": 1235,
      "dic": 1236,
      "compl": 1237,
      "perhap": 1238,
      "like the ": 1239,
      "cent": 1240,
      "les ": 1241,
      "uli": 1242,
      "wea": 1243,
      "in , ": 1244,
      "wild ": 1245,
      "beh": 1246,
      "adv": 1247,
      "count": 1248,
      "dre": 1249,
      "went ": 1250,
      "rem": 1251,
      "lic": 1252,
      "ea , ": 1253,
      "ably ": 1254,
      "youn": 1255,
      "had been ": 1256,
      "deck ": 1257,
      "-- the ": 1258,
      "peculi": 1259,
      "vessel": 1260,
      "e to ": 1261,
      "whe": 1262,
      "- b": 1263,
      "but the ": 1264,
      "tting ": 1265,
      "mak": 1266,
      "from his ": 1267,
      "creat": 1268,
      "prof": 1269,
      "I th": 1270,
      "ove ": 1271,
      " tru": 1272,
      "also ": 1273,
      "ards ": 1274,
      "And": 1275,
      "A ": 1276,
      "ible ": 1277,
      "mas": 1278,
      "ed and ": 1279,
      "char": 1280,
      "; he ": 1281,
      "is , ": 1282,
      "ed that ": 1283,
      " . The ": 1284,
      "rac": 1285,
      " to t": 1286,
      "plain": 1287,
      "erefor": 1288,
      "Mr": 1289,
      "cru": 1290,
      "nam": 1291,
      "t to ": 1292,
      "another ": 1293,
      " sp": 1294,
      "point": 1295,
      "have been ": 1296,
      "mort": 1297,
      "deck": 1298,
      " through ": 1299,
      "ffer": 1300,
      "high ": 1301,
      "Leviath": 1302,
      "col": 1303,
      "dri": 1304,
      "gent": 1305,
      "pal": 1306,
      "vast ": 1307,
      "only": 1308,
      "eness ": 1309,
      "ord ": 1310,
      "he s": 1311,
      "ild": 1312,
      "was a ": 1313,
      "whale ' s ": 1314,
      "word ": 1315,
      ".\" -- ": 1316,
      "dead ": 1317,
      "certain ": 1318,
      "ING": 1319,
      ", the s": 1320,
      "Bild": 1321,
      "Pele": 1322,
      "bon": 1323,
      "ef": 1324,
      "id ": 1325,
      "ll": 1326,
      "tly ": 1327,
      "int ": 1328,
      "in some ": 1329,
      "orm": 1330,
      "when the ": 1331,
      "exce": 1332,
      "d , and ": 1333,
      "soon ": 1334,
      "mast - ": 1335,
      "circum": 1336,
      "benea": 1337,
      "tu": 1338,
      "ened ": 1339,
      "ing to the ": 1340,
      "owing ": 1341,
      "quar": 1342,
      "all this ": 1343,
      "ances ": 1344,
      " should ": 1345,
      "boats ": 1346,
      "moment ": 1347,
      "bly ": 1348,
      "give ": 1349,
      "mur": 1350,
      "nor ": 1351,
      " than": 1352,
      "ent , ": 1353,
      "oul ": 1354,
      ". Wh": 1355,
      "wise ": 1356,
      "is a ": 1357,
      "becaus": 1358,
      "div": 1359,
      "tter": 1360,
      "spea": 1361,
      "ations ": 1362,
      "Ahab ' s ": 1363,
      "!\" \" ": 1364,
      "called ": 1365,
      "I , ": 1366,
      "Pi": 1367,
      "T ": 1368,
      "aid": 1369,
      "fo": 1370,
      "fell": 1371,
      "foll": 1372,
      "less": 1373,
      "partic": 1374,
      "sion ": 1375,
      "tic ": 1376,
      "captain ": 1377,
      "contin": 1378,
      "hands ": 1379,
      "gether ": 1380,
      "Gre": 1381,
      "ON": 1382,
      "ef ": 1383,
      "ren": 1384,
      "vel": 1385,
      "wo": 1386,
      "years ": 1387,
      " though": 1388,
      " though ": 1389,
      "eless ": 1390,
      "ung": 1391,
      "ed to the ": 1392,
      "cons": 1393,
      "clud": 1394,
      "mast": 1395,
      "' s the ": 1396,
      "port": 1397,
      "Indi": 1398,
      "hold ": 1399,
      "mag": 1400,
      "e - ": 1401,
      "err": 1402,
      "red": 1403,
      "owed ": 1404,
      "es ; ": 1405,
      " to his ": 1406,
      "iron ": 1407,
      "leg": 1408,
      "cern": 1409,
      "fe": 1410,
      "always ": 1411,
      "ire ": 1412,
      "bear": 1413,
      "peri": 1414,
      ", that": 1415,
      "whale - ": 1416,
      "ance , ": 1417,
      "against": 1418,
      "among the ": 1419,
      "\"' ": 1420,
      "Y ": 1421,
      "az": 1422,
      "lem": 1423,
      "x ": 1424,
      " tell ": 1425,
      "ouch": 1426,
      "ed in the ": 1427,
      "as if ": 1428,
      "busin": 1429,
      " . But ": 1430,
      "imp": 1431,
      "large ": 1432,
      "lish ": 1433,
      "young ": 1434,
      ",-- ": 1435,
      "In ": 1436,
      "dro": 1437,
      "fam": 1438,
      "pose ": 1439,
      "cked ": 1440,
      "did": 1441,
      "all , ": 1442,
      "black ": 1443,
      "selves ": 1444,
      "matter ": 1445,
      "present ": 1446,
      "which , ": 1447,
      "complet": 1448,
      "four ": 1449,
      "oil ": 1450,
      "ping ": 1451,
      "e ; ": 1452,
      "ste": 1453,
      "bott": 1454,
      "ceiv": 1455,
      "pped ": 1456,
      "- t": 1457,
      "bri": 1458,
      "cour": 1459,
      "ris": 1460,
      "swi": 1461,
      "ings , ": 1462,
      "al s": 1463,
      "of t": 1464,
      ". L": 1465,
      "er ' s ": 1466,
      "cho": 1467,
      "itt": 1468,
      "one of the ": 1469,
      "shar": 1470,
      ". In": 1471,
      "something ": 1472,
      ". For ": 1473,
      "Stubb , ": 1474,
      "White Whale ": 1475,
      "; that ": 1476,
      "For ": 1477,
      "hold": 1478,
      ". W": 1479,
      ". Y": 1480,
      "at all ": 1481,
      "live ": 1482,
      "ed to": 1483,
      "differ": 1484,
      "enty ": 1485,
      "tter ": 1486,
      "man ' s ": 1487,
      "now , ": 1488,
      " through the ": 1489,
      "cannot ": 1490,
      "against ": 1491,
      "self , ": 1492,
      "voyag": 1493,
      ", to": 1494,
      "?-- ": 1495,
      "Ch": 1496,
      "EN": 1497,
      "ad , ": 1498,
      "hu": 1499,
      "oon ": 1500,
      "pow": 1501,
      "pil": 1502,
      "pent": 1503,
      "pic": 1504,
      "wal": 1505,
      "way": 1506,
      "wav": 1507,
      "s ! ": 1508,
      " thus ": 1509,
      "ins": 1510,
      "eri": 1511,
      "al , ": 1512,
      "atch": 1513,
      "stru": 1514,
      "lit": 1515,
      "into": 1516,
      " still ": 1517,
      " times ": 1518,
      "fully ": 1519,
      "known ": 1520,
      "Nantucket ": 1521,
      "Mr . ": 1522,
      "gentlem": 1523,
      "bea": 1524,
      "bit": 1525,
      "hund": 1526,
      "mm": 1527,
      "me . ": 1528,
      " there , ": 1529,
      "in their ": 1530,
      "stand ": 1531,
      "as it ": 1532,
      "I was ": 1533,
      "amp": 1534,
      "but a ": 1535,
      ". In ": 1536,
      "boat , ": 1537,
      "does ": 1538,
      "which the ": 1539,
      "cover": 1540,
      "foo": 1541,
      "hous": 1542,
      "ied ": 1543,
      "igh": 1544,
      "say": 1545,
      "e and ": 1546,
      "ing t": 1547,
      "rev": 1548,
      "ing and ": 1549,
      "fore": 1550,
      "it ' s ": 1551,
      " . S": 1552,
      "ull ": 1553,
      "out of ": 1554,
      "hard ": 1555,
      "captain": 1556,
      "might": 1557,
      "I say ": 1558,
      "ures ": 1559,
      " toward": 1560,
      "bal": 1561,
      "best ": 1562,
      "deep": 1563,
      "eye ": 1564,
      "hon": 1565,
      "ky ": 1566,
      "ment ": 1567,
      "ort of ": 1568,
      " . N": 1569,
      " . Th": 1570,
      "set ": 1571,
      "ood": 1572,
      "whale . ": 1573,
      " the ship": 1574,
      "ward": 1575,
      " see ": 1576,
      "looking ": 1577,
      "Queequeg , ": 1578,
      "appear": 1579,
      ".-- ": 1580,
      "IS": 1581,
      "days ": 1582,
      "she ": 1583,
      "w ": 1584,
      "ing , and ": 1585,
      " some": 1586,
      "chap": 1587,
      "happ": 1588,
      "he ' s ": 1589,
      "' S ": 1590,
      "ity , ": 1591,
      "even": 1592,
      "e than ": 1593,
      "pers": 1594,
      "way , ": 1595,
      "peci": 1596,
      "fisher": 1597,
      "doub": 1598,
      "ING ": 1599,
      "og": 1600,
      "pend": 1601,
      "oft ": 1602,
      "of their ": 1603,
      "of those ": 1604,
      "three ": 1605,
      "as to ": 1606,
      "living ": 1607,
      " that , ": 1608,
      "black": 1609,
      "heart ": 1610,
      "mann": 1611,
      "harpoon ": 1612,
      "wonder": 1613,
      "continu": 1614,
      "IL": 1615,
      "This ": 1616,
      "men , ": 1617,
      "num": 1618,
      "od": 1619,
      "s in ": 1620,
      "of them ": 1621,
      ". M": 1622,
      "olly ": 1623,
      "and that ": 1624,
      "earn": 1625,
      "add": 1626,
      "out of the ": 1627,
      ", then , ": 1628,
      "ative ": 1629,
      "least ": 1630,
      "looked ": 1631,
      "objec": 1632,
      "command": 1633,
      "cau": 1634,
      "put ": 1635,
      " - ": 1636,
      "Per": 1637,
      "gli": 1638,
      "hour": 1639,
      "moun": 1640,
      "pan": 1641,
      "ros": 1642,
      "sir": 1643,
      "ts , ": 1644,
      "ust": 1645,
      "y the ": 1646,
      "ins ": 1647,
      "or the ": 1648,
      "ing it ": 1649,
      "as he ": 1650,
      "on his ": 1651,
      "ook": 1652,
      "all his ": 1653,
      "leg ": 1654,
      "left ": 1655,
      "udden": 1656,
      "mate ": 1657,
      "HAL": 1658,
      "must be ": 1659,
      "may be ": 1660,
      "small ": 1661,
      "often ": 1662,
      "Jonah ": 1663,
      "Moby Dick ": 1664,
      "AL": 1665,
      "Aye , ": 1666,
      "F ": 1667,
      "Tash": 1668,
      "eal": 1669,
      "gone ": 1670,
      "ian ": 1671,
      "jaw": 1672,
      "lay ": 1673,
      "never": 1674,
      "re ": 1675,
      "rou": 1676,
      "vely ": 1677,
      "ze ": 1678,
      "arm ": 1679,
      "of these ": 1680,
      "; and th": 1681,
      "ist ": 1682,
      "ement ": 1683,
      "ed t": 1684,
      "concern": 1685,
      "deck , ": 1686,
      " sea ": 1687,
      "watch": 1688,
      "h ! ": 1689,
      "before the ": 1690,
      "ition ": 1691,
      "known": 1692,
      "circumst": 1693,
      "00": 1694,
      "m , ": 1695,
      "same ": 1696,
      "vic": 1697,
      "why ": 1698,
      "rather ": 1699,
      "see": 1700,
      "tions ": 1701,
      "s . But ": 1702,
      " them , ": 1703,
      "ell , ": 1704,
      "carri": 1705,
      "obser": 1706,
      "did not ": 1707,
      "could not ": 1708,
      "harpooneer ": 1709,
      "round the ": 1710,
      "Eng": 1711,
      "Amer": 1712,
      "ily ": 1713,
      "lee": 1714,
      "ver ": 1715,
      "ore ": 1716,
      "of th": 1717,
      "at , ": 1718,
      "stea": 1719,
      "ass ": 1720,
      "che": 1721,
      "esid": 1722,
      " . H": 1723,
      "above ": 1724,
      "n ' t ": 1725,
      "clo": 1726,
      "close ": 1727,
      "antly ": 1728,
      "open ": 1729,
      "however ": 1730,
      "monst": 1731,
      "need": 1732,
      "larg": 1733,
      "certain": 1734,
      "between ": 1735,
      "whalemen ": 1736,
      "standing ": 1737,
      "Pip ": 1738,
      "Tashte": 1739,
      "Americ": 1740,
      "WHAL": 1741,
      "cen": 1742,
      "dem": 1743,
      "hop": 1744,
      "kes ": 1745,
      "kill": 1746,
      "lad": 1747,
      "p , ": 1748,
      "us , ": 1749,
      "ank": 1750,
      "out , ": 1751,
      ". CHAPTER ": 1752,
      "ately ": 1753,
      "stor": 1754,
      "; I ": 1755,
      "unt": 1756,
      "been": 1757,
      " . It ": 1758,
      "entire ": 1759,
      "previ": 1760,
      "!\" cried ": 1761,
      "pip": 1762,
      "Starbuck , ": 1763,
      "voyage ": 1764,
      "about the ": 1765,
      "Flask ": 1766,
      "length ": 1767,
      "ocean ": 1768,
      "business ": 1769,
      ";-- ": 1770,
      "be the ": 1771,
      "din": 1772,
      "fer": 1773,
      "fif": 1774,
      "mal": 1775,
      "med": 1776,
      "mind ": 1777,
      "nec": 1778,
      "name ": 1779,
      "oy": 1780,
      ". But": 1781,
      "- like ": 1782,
      "is not ": 1783,
      "he would ": 1784,
      " . ( ": 1785,
      "not the ": 1786,
      "whales , ": 1787,
      "roy": 1788,
      "ull": 1789,
      "pleas": 1790,
      "ished ": 1791,
      "ific": 1792,
      "present": 1793,
      "break": 1794,
      "common ": 1795,
      "sometimes ": 1796,
      "dark": 1797,
      "instant ": 1798,
      "broad ": 1799,
      "lower ": 1800,
      "ready ": 1801,
      "much": 1802,
      "part of the ": 1803,
      "reason ": 1804,
      "Indian ": 1805,
      "), ": 1806,
      "Al": 1807,
      "Right ": 1808,
      "a th": 1809,
      "ave ": 1810,
      "coff": 1811,
      "done ": 1812,
      "pra": 1813,
      "answ": 1814,
      "th the ": 1815,
      "ast , ": 1816,
      "having ": 1817,
      "among ": 1818,
      "earth": 1819,
      "ult": 1820,
      "conf": 1821,
      "heads ": 1822,
      "ext ": 1823,
      "out the ": 1824,
      "marin": 1825,
      "fix": 1826,
      "other s": 1827,
      "beli": 1828,
      "ctly ": 1829,
      "ept ": 1830,
      "against the ": 1831,
      "hundred ": 1832,
      "OF ": 1833,
      "ean": 1834,
      "ged ": 1835,
      "hom": 1836,
      "hint": 1837,
      "ith ": 1838,
      "keep ": 1839,
      "uc": 1840,
      "orig": 1841,
      "arr": 1842,
      ". C": 1843,
      "stern": 1844,
      "of all ": 1845,
      "cks ": 1846,
      "rist": 1847,
      "peril": 1848,
      "shor": 1849,
      ", thou ": 1850,
      "main ": 1851,
      "s of his ": 1852,
      "ousand ": 1853,
      "who , ": 1854,
      "mark": 1855,
      "counter": 1856,
      "pursu": 1857,
      "further ": 1858,
      "fear": 1859,
      "fast": 1860,
      "gri": 1861,
      "ps ": 1862,
      "pon": 1863,
      "said ": 1864,
      "ven": 1865,
      "ous , ": 1866,
      "that ": 1867,
      " sail": 1868,
      "; \" ": 1869,
      "; and the ": 1870,
      "est , ": 1871,
      "lig": 1872,
      "urn ": 1873,
      "rigg": 1874,
      "I am ": 1875,
      "dily ": 1876,
      "cond ": 1877,
      "ici": 1878,
      "ets ": 1879,
      "clos": 1880,
      "sign": 1881,
      "look": 1882,
      "ivory ": 1883,
      "cord": 1884,
      "ence , ": 1885,
      "New ": 1886,
      "On": 1887,
      "ee ": 1888,
      "few ": 1889,
      "mus": 1890,
      "tru": 1891,
      "along ": 1892,
      "ed with": 1893,
      "ed by the ": 1894,
      "a b": 1895,
      "chance ": 1896,
      "in my ": 1897,
      "wide ": 1898,
      "ric": 1899,
      "quest": 1900,
      "whit": 1901,
      ", that the ": 1902,
      "ople ": 1903,
      "cut ": 1904,
      "night , ": 1905,
      ". This ": 1906,
      "cabin ": 1907,
      "because ": 1908,
      "day": 1909,
      "fel": 1910,
      "kil": 1911,
      "leviath": 1912,
      "od , ": 1913,
      "sil": 1914,
      "tur": 1915,
      "wel": 1916,
      "wear": 1917,
      "wind ": 1918,
      "would": 1919,
      "oned ": 1920,
      "alli": 1921,
      "art ": 1922,
      "ed ; ": 1923,
      "rest ": 1924,
      "ches ": 1925,
      "chang": 1926,
      "in one ": 1927,
      "es to ": 1928,
      "noble ": 1929,
      "blood ": 1930,
      "But the ": 1931,
      "every": 1932,
      "great": 1933,
      "would have ": 1934,
      "going ": 1935,
      "must have ": 1936,
      " through": 1937,
      "hoist": 1938,
      "I ' ll ": 1939,
      "devil ": 1940,
      "perhaps ": 1941,
      "Leviathan ": 1942,
      "divid": 1943,
      " towards the ": 1944,
      "origin": 1945,
      "mall ": 1946,
      "woo": 1947,
      " take ": 1948,
      " things ": 1949,
      " think ": 1950,
      "ans ": 1951,
      "y of ": 1952,
      "ing st": 1953,
      "or s": 1954,
      ". D": 1955,
      "respec": 1956,
      "sting ": 1957,
      "a whale ": 1958,
      "use ": 1959,
      "p - ": 1960,
      "comes ": 1961,
      "work ": 1962,
      "-- that ": 1963,
      "water": 1964,
      "seemed to ": 1965,
      "carpent": 1966,
      "eel ": 1967,
      "meas": 1968,
      "curious ": 1969,
      "myself ": 1970,
      "wondr": 1971,
      "nigh": 1972,
      "strange ": 1973,
      "general ": 1974,
      "AND ": 1975,
      "sort of ": 1976,
      "peculiar": 1977,
      "vessel ": 1978,
      "- st": 1979,
      "As ": 1980,
      "No ": 1981,
      "dle ": 1982,
      "fast ": 1983,
      "furn": 1984,
      "hol": 1985,
      "ili": 1986,
      "ither ": 1987,
      "kept ": 1988,
      "mer ": 1989,
      "o that ": 1990,
      "pt ": 1991,
      "pir": 1992,
      "ual ": 1993,
      "want": 1994,
      " this": 1995,
      "ensi": 1996,
      "art": 1997,
      "ed it ": 1998,
      "rep": 1999,
      "where": 2000,
      "especi": 2001,
      "on a ": 2002,
      "been s": 2003,
      "seas ": 2004,
      " to the s": 2005,
      "accoun": 2006,
      "e . But ": 2007,
      "exc": 2008,
      "morning ": 2009,
      "old man ": 2010,
      "part": 2011,
      "waters ": 2012,
      "pris": 2013,
      ". So ": 2014,
      "broken ": 2015,
      "augh": 2016,
      "whether ": 2017,
      "Bildad ": 2018,
      "quarter ": 2019,
      "mighty ": 2020,
      "uddenly ": 2021,
      "Ar": 2022,
      "Oh , ": 2023,
      "SA": 2024,
      "deep ": 2025,
      "keep": 2026,
      "lan": 2027,
      "mere ": 2028,
      "sman ": 2029,
      "ym": 2030,
      "yon": 2031,
      " , he ": 2032,
      "rel": 2033,
      "remo": 2034,
      "at his ": 2035,
      "still": 2036,
      "; but": 2037,
      "wif": 2038,
      "itself ": 2039,
      "an un": 2040,
      "-- a ": 2041,
      "e this ": 2042,
      "coming ": 2043,
      "ically ": 2044,
      "s . Th": 2045,
      " themselves ": 2046,
      "most": 2047,
      "hear ": 2048,
      "got ": 2049,
      "glo": 2050,
      "five ": 2051,
      "death ": 2052,
      "Pequod ' s ": 2053,
      "indeed ": 2054,
      "mortal ": 2055,
      "magn": 2056,
      "AR": 2057,
      "CK": 2058,
      "RE": 2059,
      "bone ": 2060,
      "call ": 2061,
      "ean ": 2062,
      "fine ": 2063,
      "found": 2064,
      "find ": 2065,
      "ks , ": 2066,
      "last": 2067,
      "spo": 2068,
      "vell": 2069,
      "zed ": 2070,
      " tra": 2071,
      "anim": 2072,
      "enough ": 2073,
      "stood ": 2074,
      "in all ": 2075,
      "lid ": 2076,
      "e , he ": 2077,
      "il , ": 2078,
      "tive ": 2079,
      "up the ": 2080,
      "point ": 2081,
      "ther , ": 2082,
      "lean": 2083,
      "ity of ": 2084,
      "here , ": 2085,
      "held ": 2086,
      "not to ": 2087,
      "invest": 2088,
      "people ": 2089,
      "fresh": 2090,
      "ularly ": 2091,
      "erefore ": 2092,
      "hur": 2093,
      "mem": 2094,
      "pea": 2095,
      "sus": 2096,
      "win": 2097,
      "ann": 2098,
      "ank ": 2099,
      "ont": 2100,
      "are the ": 2101,
      " sid": 2102,
      "rea": 2103,
      "receiv": 2104,
      "ing - ": 2105,
      "a ! ": 2106,
      "aspec": 2107,
      "olog": 2108,
      "and there ": 2109,
      "himself": 2110,
      "Steel": 2111,
      "-- s": 2112,
      "ousness ": 2113,
      "prov": 2114,
      "goes ": 2115,
      "boat ' s ": 2116,
      "has been ": 2117,
      "case ": 2118,
      "Captain Ahab ": 2119,
      "craft ": 2120,
      "each other ": 2121,
      "possible ": 2122,
      "Steelkil": 2123,
      "\"-- ": 2124,
      "Par": 2125,
      "cul": 2126,
      "cend": 2127,
      "een ": 2128,
      "eff": 2129,
      "far": 2130,
      "ff ": 2131,
      "fanc": 2132,
      "lord ": 2133,
      "new ": 2134,
      "pol": 2135,
      "sha": 2136,
      "sol": 2137,
      "ing the s": 2138,
      "the": 2139,
      "stre": 2140,
      "a c": 2141,
      "elet": 2142,
      "when , ": 2143,
      "of it ": 2144,
      "in him ": 2145,
      "escap": 2146,
      "lies ": 2147,
      "fort": 2148,
      "upper ": 2149,
      "ages ": 2150,
      "quite ": 2151,
      "boy ": 2152,
      "from the s": 2153,
      "conclud": 2154,
      "s . The ": 2155,
      "a sort of ": 2156,
      "sist": 2157,
      "ation , ": 2158,
      "y , and ": 2159,
      "would be ": 2160,
      "grand ": 2161,
      "of some ": 2162,
      "avage ": 2163,
      ". A ": 2164,
      ". As ": 2165,
      "brea": 2166,
      ". There ": 2167,
      "voice ": 2168,
      "time , ": 2169,
      ". Now , ": 2170,
      "horiz": 2171,
      "might be ": 2172,
      "rope ": 2173,
      "occas": 2174,
      "direc": 2175,
      "Peleg ": 2176,
      ", too , ": 2177,
      "caught ": 2178,
      "* ": 2179,
      "HI": 2180,
      "a , ": 2181,
      "gun": 2182,
      "gall": 2183,
      "hoo": 2184,
      "lay": 2185,
      "row": 2186,
      "run ": 2187,
      "rush": 2188,
      "var": 2189,
      " thought ": 2190,
      "erable ": 2191,
      "als ": 2192,
      "as if": 2193,
      "for s": 2194,
      "forth ": 2195,
      "rib": 2196,
      "him , and ": 2197,
      "! H": 2198,
      "! S": 2199,
      "by a ": 2200,
      "ump ": 2201,
      "e . \" ": 2202,
      "e . The ": 2203,
      "more than ": 2204,
      "? Wh": 2205,
      "ters ": 2206,
      "green ": 2207,
      " they are ": 2208,
      "open": 2209,
      "proce": 2210,
      "wards ": 2211,
      "fire ": 2212,
      "will be ": 2213,
      "fair ": 2214,
      "offic": 2215,
      "ities ": 2216,
      "dark ": 2217,
      "interval": 2218,
      "belong": 2219,
      " the ship ' s ": 2220,
      "gave ": 2221,
      "cruis": 2222,
      "Green": 2223,
      "bottom ": 2224,
      "English ": 2225,
      "OU": 2226,
      "bas": 2227,
      "sing ": 2228,
      "se , ": 2229,
      "ven ": 2230,
      "yell": 2231,
      "yet , ": 2232,
      "s are ": 2233,
      " thou": 2234,
      "erri": 2235,
      "ers . ": 2236,
      "anch": 2237,
      "y - ": 2238,
      "ingle ": 2239,
      "ordin": 2240,
      "of st": 2241,
      "his": 2242,
      "at least ": 2243,
      "atta": 2244,
      "omin": 2245,
      "eless , ": 2246,
      "ch , ": 2247,
      "he t": 2248,
      "it ; ": 2249,
      "iled ": 2250,
      " . B": 2251,
      "sequ": 2252,
      "second ": 2253,
      "e there ": 2254,
      "boy": 2255,
      "acc": 2256,
      "act ": 2257,
      "not only ": 2258,
      "perm": 2259,
      "ect ": 2260,
      "et the ": 2261,
      "preh": 2262,
      "dest": 2263,
      " they were ": 2264,
      "ground ": 2265,
      ". They ": 2266,
      "again , ": 2267,
      "phant": 2268,
      "hand , ": 2269,
      "gged ": 2270,
      "down the ": 2271,
      "between the ": 2272,
      "say , ": 2273,
      "duc": 2274,
      "mouth": 2275,
      "fellow ": 2276,
      "consci": 2277,
      "Tashtego ": 2278,
      "especially ": 2279,
      ".' ": 2280,
      "OL": 2281,
      "bir": 2282,
      "boo": 2283,
      "eti": 2284,
      "iously ": 2285,
      "kind ": 2286,
      "lur": 2287,
      "lost ": 2288,
      "lance ": 2289,
      "near ": 2290,
      "ness , ": 2291,
      "ring ": 2292,
      "sun": 2293,
      "sail ": 2294,
      "wall": 2295,
      "d of ": 2296,
      "erous ": 2297,
      "they ": 2298,
      "ing in the ": 2299,
      "forec": 2300,
      "' ll ": 2301,
      "an in": 2302,
      " . W": 2303,
      "' s a ": 2304,
      "dig": 2305,
      "e they ": 2306,
      "room": 2307,
      "you s": 2308,
      "inten": 2309,
      "for his ": 2310,
      "aye , ": 2311,
      "spir": 2312,
      "aff": 2313,
      "mates ": 2314,
      " shall ": 2315,
      "fair": 2316,
      "' s t": 2317,
      ",\" cried ": 2318,
      "regard": 2319,
      "reason": 2320,
      " seemed ": 2321,
      "aid the ": 2322,
      "Christ": 2323,
      "wondrous ": 2324,
      "M ": 2325,
      "Pac": 2326,
      "burn": 2327,
      "eful ": 2328,
      "ike ": 2329,
      "jaw ": 2330,
      "lor": 2331,
      "los": 2332,
      "lev": 2333,
      "laugh": 2334,
      "narr": 2335,
      "op ": 2336,
      "row ": 2337,
      "s to the ": 2338,
      "ture ": 2339,
      "wa": 2340,
      "yst": 2341,
      " then , ": 2342,
      "t . ": 2343,
      "ince ": 2344,
      ". And": 2345,
      "ates ": 2346,
      "atter": 2347,
      "story ": 2348,
      "; while ": 2349,
      "as , ": 2350,
      "cking ": 2351,
      "better ": 2352,
      "riv": 2353,
      "abl": 2354,
      "you , ": 2355,
      "not so ": 2356,
      "blo": 2357,
      "blue ": 2358,
      " stand": 2359,
      "everal ": 2360,
      "mark ": 2361,
      "so that ": 2362,
      "Queequeg": 2363,
      ". At ": 2364,
      "pping ": 2365,
      ". That ": 2366,
      "slow": 2367,
      "day , ": 2368,
      "such a ": 2369,
      "since ": 2370,
      "harpooneers ": 2371,
      "under the ": 2372,
      "feel ": 2373,
      "bulwar": 2374,
      "running ": 2375,
      "along the ": 2376,
      "peculiar ": 2377,
      "course ": 2378,
      "felt ": 2379,
      "SAIL": 2380,
      "Greenland ": 2381,
      "AT": 2382,
      "Dag": 2383,
      "II": 2384,
      "Look ": 2385,
      "ah": 2386,
      "coo": 2387,
      "dur": 2388,
      "dash": 2389,
      "fas": 2390,
      "ient ": 2391,
      "mir": 2392,
      "next ": 2393,
      "rup": 2394,
      "wre": 2395,
      " till ": 2396,
      " think": 2397,
      "iness ": 2398,
      "inging ": 2399,
      "alone ": 2400,
      "ed him ": 2401,
      "reach": 2402,
      "of the whale ": 2403,
      "was now ": 2404,
      "ound , ": 2405,
      "blub": 2406,
      "shall ": 2407,
      "ump": 2408,
      "expres": 2409,
      " stood ": 2410,
      "making ": 2411,
      "That ": 2412,
      "seems ": 2413,
      "viol": 2414,
      "astle ": 2415,
      "fishery ": 2416,
      "do not ": 2417,
      "ition": 2418,
      "mist": 2419,
      "; then ": 2420,
      "; so ": 2421,
      "invol": 2422,
      "long , ": 2423,
      "quick": 2424,
      "rans": 2425,
      "subst": 2426,
      "itude ": 2427,
      "hammo": 2428,
      " their s": 2429,
      "murder": 2430,
      " than the ": 2431,
      "monster ": 2432,
      "! the ": 2433,
      "Bo": 2434,
      "Lord ": 2435,
      "batt": 2436,
      "fell ": 2437,
      "gor": 2438,
      "gold ": 2439,
      "gain": 2440,
      "learn": 2441,
      "mly ": 2442,
      "nor": 2443,
      "pag": 2444,
      "ry": 2445,
      "sim": 2446,
      "soul ": 2447,
      "ug": 2448,
      "year": 2449,
      "zz": 2450,
      " tri": 2451,
      "s , the ": 2452,
      "in those ": 2453,
      "an to ": 2454,
      "enough": 2455,
      "ori": 2456,
      "ard , ": 2457,
      "reli": 2458,
      "rely ": 2459,
      "rever": 2460,
      "a great ": 2461,
      "er and ": 2462,
      "- F": 2463,
      "it was": 2464,
      "' ye ": 2465,
      "eag": 2466,
      "iling ": 2467,
      "empl": 2468,
      "ung ": 2469,
      "ed their ": 2470,
      "of the sea ": 2471,
      "and the s": 2472,
      " . And ": 2473,
      "I had ": 2474,
      "rais": 2475,
      "able , ": 2476,
      "ag ": 2477,
      "um ": 2478,
      "But , ": 2479,
      "; and , ": 2480,
      "ever s": 2481,
      "ancing ": 2482,
      "it , and ": 2483,
      "descri": 2484,
      "; though ": 2485,
      "myst": 2486,
      "Sperm Whal": 2487,
      "human ": 2488,
      "chief ": 2489,
      "half - ": 2490,
      "whaleman ": 2491,
      "rolled ": 2492,
      "centr": 2493,
      "I thought ": 2494,
      "plainly ": 2495,
      "particular ": 2496,
      "waves ": 2497,
      "SAILOR": 2498,
      "Daggo": 2499,
      "; this ": 2500,
      "aim": 2501,
      "iver": 2502,
      "jack": 2503,
      "led": 2504,
      "leep": 2505,
      "sight ": 2506,
      "well": 2507,
      "inking ": 2508,
      "ane": 2509,
      "ant , ": 2510,
      "y and ": 2511,
      "en to ": 2512,
      "rec": 2513,
      "a good ": 2514,
      "er of ": 2515,
      "ching ": 2516,
      "in its ": 2517,
      "haw": 2518,
      "is it ": 2519,
      "is that ": 2520,
      "is this ": 2521,
      "an old ": 2522,
      "ile ": 2523,
      "embl": 2524,
      "ossed ": 2525,
      "but , ": 2526,
      " . He ": 2527,
      "rap": 2528,
      "him to ": 2529,
      "all these ": 2530,
      "eet": 2531,
      "ade ": 2532,
      "compar": 2533,
      "for ever ": 2534,
      "tty ": 2535,
      ", though": 2536,
      "etern": 2537,
      "to be ": 2538,
      "over the s": 2539,
      "queer ": 2540,
      " shor": 2541,
      "cross": 2542,
      "into his ": 2543,
      "where the ": 2544,
      "Starbuck": 2545,
      "sleep": 2546,
      "like th": 2547,
      "last , ": 2548,
      " that this ": 2549,
      "distance ": 2550,
      "a few ": 2551,
      ". It was ": 2552,
      " such a ": 2553,
      "Nantucket": 2554,
      " turned ": 2555,
      "indeed , ": 2556,
      "Flask , ": 2557,
      "anything ": 2558,
      "directly ": 2559,
      "range ": 2560,
      "mast - head ": 2561,
      "speak ": 2562,
      "believ": 2563,
      "Steelkilt ": 2564,
      "eleton ": 2565,
      "various ": 2566,
      "RO": 2567,
      "To ": 2568,
      "d to ": 2569,
      "dam": 2570,
      "fat": 2571,
      "fra": 2572,
      "gal": 2573,
      "gir": 2574,
      "la": 2575,
      "mine ": 2576,
      "mind": 2577,
      "ot": 2578,
      "ost": 2579,
      "pain": 2580,
      "sli": 2581,
      "sea": 2582,
      "sperm ": 2583,
      "wak": 2584,
      " thes": 2585,
      "ani": 2586,
      "antic ": 2587,
      "ouch ": 2588,
      "ing their ": 2589,
      "orn": 2590,
      "ing of the ": 2591,
      "atur": 2592,
      "at this ": 2593,
      "at times ": 2594,
      "el , ": 2595,
      "es that ": 2596,
      "ited ": 2597,
      "ed them ": 2598,
      "with their ": 2599,
      "of the t": 2600,
      "buck": 2601,
      " . D": 2602,
      "' s s": 2603,
      "room ": 2604,
      "ap ": 2605,
      "pot": 2606,
      "exter": 2607,
      "s . H": 2608,
      "were the ": 2609,
      "work": 2610,
      "from a ": 2611,
      "rust": 2612,
      "watch ": 2613,
      "view": 2614,
      "canni": 2615,
      "ry - ": 2616,
      "company ": 2617,
      "paus": 2618,
      "gaz": 2619,
      "after the ": 2620,
      "natural ": 2621,
      "precis": 2622,
      "visible ": 2623,
      "whatever ": 2624,
      "behind ": 2625,
      "dream": 2626,
      "famous ": 2627,
      "American ": 2628,
      "necess": 2629,
      "coffin ": 2630,
      "CH": 2631,
      "ES ": 2632,
      "cup": 2633,
      "don ": 2634,
      "hat ": 2635,
      "kno": 2636,
      "low ": 2637,
      "lov": 2638,
      "mut": 2639,
      "none ": 2640,
      "new": 2641,
      "phi": 2642,
      "pli": 2643,
      "wenty ": 2644,
      "ern ": 2645,
      "ality ": 2646,
      "aloft ": 2647,
      "hid": 2648,
      "else ": 2649,
      "of my ": 2650,
      "essi": 2651,
      "forward ": 2652,
      "on bo": 2653,
      "within ": 2654,
      "-- and ": 2655,
      "ush ": 2656,
      "idea ": 2657,
      "fron": 2658,
      "sho": 2659,
      "umbl": 2660,
      "e . S": 2661,
      "excl": 2662,
      "s . S": 2663,
      "degre": 2664,
      "? What ": 2665,
      "mad ": 2666,
      "any other ": 2667,
      "no more ": 2668,
      "prob": 2669,
      "would not ": 2670,
      "water , ": 2671,
      "prom": 2672,
      "if you ": 2673,
      "discover": 2674,
      ", till ": 2675,
      "darted ": 2676,
      "While ": 2677,
      " towards ": 2678,
      "frequ": 2679,
      "heaven ": 2680,
      "sort ": 2681,
      ". On": 2682,
      "wrink": 2683,
      "mouth ": 2684,
      "exceed": 2685,
      "completely ": 2686,
      "different ": 2687,
      "sir , ": 2688,
      "Right Whale ": 2689,
      "!' ": 2690,
      "At": 2691,
      "Hea": 2692,
      "TA": 2693,
      "cast ": 2694,
      "cop": 2695,
      "fro": 2696,
      "fill": 2697,
      "fig": 2698,
      "hang": 2699,
      "hour ": 2700,
      "med ": 2701,
      "shi": 2702,
      "ses ": 2703,
      "uff": 2704,
      "wake ": 2705,
      "s ; and ": 2706,
      "erv": 2707,
      "enorm": 2708,
      "encounter": 2709,
      "ing them ": 2710,
      "alto": 2711,
      ". E": 2712,
      ". St": 2713,
      "reat": 2714,
      "ate , ": 2715,
      "whom ": 2716,
      "of an ": 2717,
      "chan": 2718,
      "ch s": 2719,
      "in it ": 2720,
      "in which ": 2721,
      "in order": 2722,
      "liv": 2723,
      "form ": 2724,
      "it to ": 2725,
      " . F": 2726,
      " . M": 2727,
      "seiz": 2728,
      "ay , ": 2729,
      "bod": 2730,
      "all that ": 2731,
      "ounc": 2732,
      "conce": 2733,
      "pois": 2734,
      "s . \" ": 2735,
      "so , ": 2736,
      "clear": 2737,
      "spout ": 2738,
      "away": 2739,
      "ever , ": 2740,
      "ter , ": 2741,
      "udden ": 2742,
      "cry ": 2743,
      "tical ": 2744,
      "sea - ": 2745,
      "upon his ": 2746,
      "ly t": 2747,
      "off the ": 2748,
      "bree": 2749,
      "breath": 2750,
      "other , ": 2751,
      "knif": 2752,
      "might have ": 2753,
      "paint": 2754,
      "I ' ve ": 2755,
      "auth": 2756,
      "let me ": 2757,
      "ignor": 2758,
      "length": 2759,
      "remained ": 2760,
      "considerable ": 2761,
      "creature ": 2762,
      "Bildad , ": 2763,
      "mming ": 2764,
      "forehead ": 2765,
      "observ": 2766,
      "WHALE ": 2767,
      "fifty ": 2768,
      "quarter - ": 2769,
      "gunwal": 2770,
      "Har": 2771,
      "I t": 2772,
      "I should ": 2773,
      "Man": 2774,
      "ST": 2775,
      "Sou": 2776,
      "bill": 2777,
      "d the ": 2778,
      "home ": 2779,
      "hatch": 2780,
      "squ": 2781,
      "saw ": 2782,
      "suddenly ": 2783,
      "wood ": 2784,
      "incre": 2785,
      "on s": 2786,
      "theless , ": 2787,
      "ed from ": 2788,
      "really ": 2789,
      "at once ": 2790,
      "eless": 2791,
      "as they ": 2792,
      "ash ": 2793,
      "; yet ": 2794,
      "hav": 2795,
      "wid": 2796,
      "as well ": 2797,
      "e , but ": 2798,
      "for that ": 2799,
      "' em ": 2800,
      "on board ": 2801,
      "is to ": 2802,
      "ement": 2803,
      "edly ": 2804,
      "and this ": 2805,
      "secre": 2806,
      "ago ": 2807,
      " to that ": 2808,
      " together ": 2809,
      "while , ": 2810,
      "idly ": 2811,
      "eeth ": 2812,
      "ent to ": 2813,
      "accomp": 2814,
      "account": 2815,
      "accord": 2816,
      "poin": 2817,
      "e . N": 2818,
      "exp": 2819,
      "experi": 2820,
      "whale - s": 2821,
      "pretty ": 2822,
      "s . N": 2823,
      "spr": 2824,
      "part of ": 2825,
      "by the s": 2826,
      "ward , ": 2827,
      "ances , ": 2828,
      "seem ": 2829,
      "gras": 2830,
      "poss": 2831,
      "strong": 2832,
      "ly to ": 2833,
      "port ": 2834,
      "minut": 2835,
      "In the ": 2836,
      "night": 2837,
      "entirely ": 2838,
      "light , ": 2839,
      "heed": 2840,
      "born ": 2841,
      "heavy ": 2842,
      "drawing ": 2843,
      "nearly ": 2844,
      "chase ": 2845,
      "possibly ": 2846,
      "colour": 2847,
      "ON ": 2848,
      "medi": 2849,
      "slowly ": 2850,
      ", to the ": 2851,
      ", too ": 2852,
      "18": 2853,
      "; the s": 2854,
      "; they ": 2855,
      "OO": 2856,
      "a thing ": 2857,
      "coll": 2858,
      "free ": 2859,
      "has": 2860,
      "kin ": 2861,
      "ling": 2862,
      "lash": 2863,
      "sn": 2864,
      "smo": 2865,
      "sure ": 2866,
      "smen ": 2867,
      "soul": 2868,
      "ut ": 2869,
      "won ' t ": 2870,
      "anti": 2871,
      "alter": 2872,
      "already ": 2873,
      "orn ": 2874,
      "thought ": 2875,
      "ed for ": 2876,
      "and a ": 2877,
      "ing in ": 2878,
      "at a ": 2879,
      "at that ": 2880,
      "wholly ": 2881,
      "of a s": 2882,
      "his own ": 2883,
      "he is ": 2884,
      "irty ": 2885,
      "itu": 2886,
      "island ": 2887,
      "ed the s": 2888,
      "edall": 2889,
      "I will ": 2890,
      "rad": 2891,
      "was not ": 2892,
      "agg": 2893,
      "e than": 2894,
      " to this ": 2895,
      "appar": 2896,
      "! The ": 2897,
      "with it ": 2898,
      "ented ": 2899,
      "acle ": 2900,
      "acros": 2901,
      "import": 2902,
      "exac": 2903,
      "we are ": 2904,
      "looks ": 2905,
      "mate , ": 2906,
      " time , ": 2907,
      "eye": 2908,
      "eyes , ": 2909,
      "corn": 2910,
      "suc": 2911,
      "cust": 2912,
      ". Nor ": 2913,
      "once more ": 2914,
      ". It is ": 2915,
      "generally ": 2916,
      "return": 2917,
      "arily ": 2918,
      "middle ": 2919,
      "whether": 2920,
      "bones ": 2921,
      "beneath ": 2922,
      "speak": 2923,
      "huge ": 2924,
      "object ": 2925,
      "Parsee ": 2926,
      "blubber ": 2927,
      "0 ": 2928,
      "Fren": 2929,
      "IC": 2930,
      "bol": 2931,
      "cook ": 2932,
      "ft": 2933,
      "holl": 2934,
      "jet ": 2935,
      "moo": 2936,
      "pac": 2937,
      "inks ": 2938,
      "er s": 2939,
      "ers of ": 2940,
      "inger ": 2941,
      "al t": 2942,
      "this ": 2943,
      " , or ": 2944,
      "and , ": 2945,
      "resp": 2946,
      "repe": 2947,
      "a - ": 2948,
      "in a s": 2949,
      "as I ": 2950,
      "forc": 2951,
      "he has ": 2952,
      "irst ": 2953,
      "become ": 2954,
      "I know ": 2955,
      "tion , ": 2956,
      "up , ": 2957,
      "dign": 2958,
      "e thr": 2959,
      "all their ": 2960,
      "ected ": 2961,
      ", the whale ": 2962,
      "Who ": 2963,
      "ight , ": 2964,
      "you will ": 2965,
      "you may ": 2966,
      "? S": 2967,
      "parts ": 2968,
      "hardly ": 2969,
      "oppos": 2970,
      "ending ": 2971,
      "proper": 2972,
      "seem to ": 2973,
      "view ": 2974,
      "when he ": 2975,
      "first": 2976,
      "glance ": 2977,
      "door ": 2978,
      "ounded ": 2979,
      "ign ": 2980,
      "coast ": 2981,
      "while the ": 2982,
      "help ": 2983,
      "CHAPTER 1": 2984,
      "IN ": 2985,
      "fact ": 2986,
      "flukes ": 2987,
      "drew ": 2988,
      " true ": 2989,
      "particular": 2990,
      "voyage , ": 2991,
      "I say , ": 2992,
      "royal ": 2993,
      "hoisted ": 2994,
      "occasion": 2995,
      "forecastle ": 2996,
      "?\" s": 2997,
      "Can": 2998,
      "Com": 2999,
      "Dut": 3000,
      "How ": 3001,
      "LA": 3002,
      "bed": 3003,
      "bbl": 3004,
      "dut": 3005,
      "eg": 3006,
      "fall": 3007,
      "hole ": 3008,
      "iel": 3009,
      "just": 3010,
      "ke": 3011,
      "kill ": 3012,
      "key ": 3013,
      "lu": 3014,
      "menti": 3015,
      "oes ": 3016,
      "pt": 3017,
      "sal": 3018,
      "son ": 3019,
      "s the s": 3020,
      "scar": 3021,
      "smi": 3022,
      "ually ": 3023,
      "vir": 3024,
      "vap": 3025,
      "y th": 3026,
      " tell": 3027,
      "s -- ": 3028,
      "inser": 3029,
      "on to ": 3030,
      "ens ": 3031,
      "outer ": 3032,
      "ing this ": 3033,
      "around ": 3034,
      "and un": 3035,
      "a very ": 3036,
      "of its ": 3037,
      "forty ": 3038,
      "iri": 3039,
      "urface ": 3040,
      "le of ": 3041,
      "separ": 3042,
      "age , ": 3043,
      "e things ": 3044,
      " to their ": 3045,
      "roar": 3046,
      "from that ": 3047,
      "cond": 3048,
      "play ": 3049,
      "by no ": 3050,
      "dep": 3051,
      "clear ": 3052,
      "fles": 3053,
      "flam": 3054,
      "greg": 3055,
      "eways ": 3056,
      "aft ": 3057,
      "ants ": 3058,
      "ended ": 3059,
      "proph": 3060,
      "ancient ": 3061,
      "over , ": 3062,
      " seen ": 3063,
      "ed to be ": 3064,
      "ific ": 3065,
      "up and ": 3066,
      "side , ": 3067,
      "Cape ": 3068,
      "Captain": 3069,
      "ness of ": 3070,
      "mean ": 3071,
      "ence of ": 3072,
      "contra": 3073,
      "leaving ": 3074,
      "resol": 3075,
      "ships ": 3076,
      "distinc": 3077,
      "final ": 3078,
      "brac": 3079,
      "wonder ": 3080,
      "purpose ": 3081,
      "chil": 3082,
      "chief": 3083,
      "lines ": 3084,
      "born": 3085,
      "priv": 3086,
      ",\" said I , ": 3087,
      " taken ": 3088,
      "friend": 3089,
      "stern ": 3090,
      "weather ": 3091,
      "remem": 3092,
      "makes ": 3093,
      "house ": 3094,
      "captain , ": 3095,
      "earthly ": 3096,
      "fashi": 3097,
      "enormous ": 3098,
      "- sh": 3099,
      ":-- ": 3100,
      "If ": 3101,
      "Lo": 3102,
      "Lak": 3103,
      "Rom": 3104,
      "__": 3105,
      "be , ": 3106,
      "cast": 3107,
      "dom ": 3108,
      "either ": 3109,
      "find": 3110,
      "fic ": 3111,
      "ions ": 3112,
      "kind": 3113,
      "lou": 3114,
      "ms ": 3115,
      "ment": 3116,
      "me that ": 3117,
      "pas": 3118,
      "ts of ": 3119,
      "ve": 3120,
      "vol": 3121,
      "vac": 3122,
      "yiel": 3123,
      "d ' ye ": 3124,
      "in t": 3125,
      "includ": 3126,
      "erc": 3127,
      "an s": 3128,
      "y of the ": 3129,
      "on the s": 3130,
      "en , and ": 3131,
      "oura": 3132,
      "or two ": 3133,
      "o ! ": 3134,
      ". G": 3135,
      "ref": 3136,
      "ing of ": 3137,
      "ing him ": 3138,
      "ing over ": 3139,
      "at the same ": 3140,
      "er ; ": 3141,
      "as that ": 3142,
      "; a ": 3143,
      "ghted ": 3144,
      "for some ": 3145,
      "it seem": 3146,
      "it may ": 3147,
      "empor": 3148,
      "unknown ": 3149,
      "oss ": 3150,
      "bear ": 3151,
      "rid": 3152,
      " . Wh": 3153,
      "ood , ": 3154,
      "agon": 3155,
      "quir": 3156,
      "rock": 3157,
      "ult ": 3158,
      "be it ": 3159,
      "out of s": 3160,
      ", these ": 3161,
      ", thought ": 3162,
      "have a ": 3163,
      " stri": 3164,
      "morn": 3165,
      "prepar": 3166,
      "? W": 3167,
      "a ship ": 3168,
      "flying ": 3169,
      "moder": 3170,
      "prodig": 3171,
      " seas ": 3172,
      "if the ": 3173,
      "watery ": 3174,
      "when I ": 3175,
      "ity of the ": 3176,
      "full": 3177,
      "crow": 3178,
      "crit": 3179,
      "' s that ": 3180,
      "brow ": 3181,
      "brought ": 3182,
      "into a ": 3183,
      ". His ": 3184,
      "contr": 3185,
      "ation of ": 3186,
      "world , ": 3187,
      "Queequeg ' s ": 3188,
      ",\" said the ": 3189,
      "brain ": 3190,
      "pull": 3191,
      "strangely ": 3192,
      "quiet": 3193,
      "purpos": 3194,
      "placed ": 3195,
      "drawn ": 3196,
      "should be ": 3197,
      "means ": 3198,
      "I think ": 3199,
      "erefore , ": 3200,
      "pointed ": 3201,
      "happen": 3202,
      "hours ": 3203,
      "ponder": 3204,
      "original ": 3205,
      "fresh ": 3206,
      "proceed": 3207,
      "ordinary ": 3208,
      "- Fish ": 3209,
      "altogether ": 3210,
      "Lakem": 3211,
      "?' ": 3212,
      "EL": 3213,
      "Fedall": 3214,
      "Here ": 3215,
      "Se": 3216,
      "bi": 3217,
      "bid": 3218,
      "cold ": 3219,
      "could": 3220,
      "dum": 3221,
      "eight ": 3222,
      "fai": 3223,
      "gro": 3224,
      "ks , and ": 3225,
      "keel": 3226,
      "laid ": 3227,
      "ny ": 3228,
      "ney ": 3229,
      "pat": 3230,
      "pun": 3231,
      "rise ": 3232,
      "y that ": 3233,
      "s in the ": 3234,
      "inci": 3235,
      "inning ": 3236,
      "erce ": 3237,
      " the t": 3238,
      "ors , ": 3239,
      "order ": 3240,
      ". P": 3241,
      ". But the ": 3242,
      "read ": 3243,
      "es ! ": 3244,
      "es , the ": 3245,
      "chant ": 3246,
      "; for": 3247,
      "eamen ": 3248,
      "itself": 3249,
      "ure , ": 3250,
      "better": 3251,
      "beyon": 3252,
      "evinc": 3253,
      "and to ": 3254,
      "I don ' t ": 3255,
      "ool ": 3256,
      "uper": 3257,
      "bodily ": 3258,
      "ident": 3259,
      "appro": 3260,
      "enter": 3261,
      "in the t": 3262,
      "conv": 3263,
      "play": 3264,
      "plain ": 3265,
      "imag": 3266,
      "by some ": 3267,
      "ought": 3268,
      "popul": 3269,
      "show": 3270,
      "e . Th": 3271,
      "eter": 3272,
      "a single ": 3273,
      "clou": 3274,
      "harp ": 3275,
      "any one ": 3276,
      " there is ": 3277,
      "motion ": 3278,
      "able to ": 3279,
      "proc": 3280,
      "proper ": 3281,
      "anced ": 3282,
      "we were ": 3283,
      "ation of the ": 3284,
      "engag": 3285,
      "Captain Peleg ": 3286,
      "knew ": 3287,
      "instea": 3288,
      "helm": 3289,
      "horri": 3290,
      "too ": 3291,
      "come to ": 3292,
      "called the ": 3293,
      "; so that ": 3294,
      "hung ": 3295,
      "circl": 3296,
      ": \" ": 3297,
      "moment": 3298,
      "began to ": 3299,
      "mild ": 3300,
      "ranqu": 3301,
      "between": 3302,
      "full of ": 3303,
      "hammer ": 3304,
      "friend ": 3305,
      "remain": 3306,
      "given ": 3307,
      "air , ": 3308,
      "perhaps , ": 3309,
      "charac": 3310,
      "follow": 3311,
      "feed": 3312,
      "dropped ": 3313,
      "pilot ": 3314,
      "struck ": 3315,
      "litary ": 3316,
      "reveal": 3317,
      "person ": 3318,
      "certainly ": 3319,
      "main - ": 3320,
      "question ": 3321,
      "account ": 3322,
      "respon": 3323,
      "' st": 3324,
      ", their ": 3325,
      ".) ": 3326,
      "Con": 3327,
      "K ": 3328,
      "Let ": 3329,
      "Oh ": 3330,
      "Rad": 3331,
      "TO ": 3332,
      "We ": 3333,
      "Yes , ": 3334,
      "book ": 3335,
      "besid": 3336,
      "cand": 3337,
      "dom": 3338,
      "dang": 3339,
      "fee": 3340,
      "go , ": 3341,
      "hy": 3342,
      "law": 3343,
      "ness": 3344,
      "oper": 3345,
      "put": 3346,
      "push": 3347,
      "rom": 3348,
      "sper": 3349,
      "sun ": 3350,
      "uff ": 3351,
      "wra": 3352,
      "yet": 3353,
      "e of the ": 3354,
      "s it ": 3355,
      "er , and ": 3356,
      "ans , ": 3357,
      "on that ": 3358,
      "ing there ": 3359,
      "almost": 3360,
      "org": 3361,
      "and more ": 3362,
      "res ": 3363,
      "sted ": 3364,
      "stone ": 3365,
      "as though ": 3366,
      "in an ": 3367,
      "; it ": 3368,
      " to it ": 3369,
      "list": 3370,
      "as much ": 3371,
      "it of ": 3372,
      "ird ": 3373,
      "ead": 3374,
      "itted ": 3375,
      "itting ": 3376,
      "old , ": 3377,
      "unless ": 3378,
      "edi": 3379,
      "with s": 3380,
      "being s": 3381,
      "anded ": 3382,
      "right": 3383,
      "rag": 3384,
      "ties ": 3385,
      "e three ": 3386,
      "earth ": 3387,
      "all of ": 3388,
      "! D": 3389,
      "with one ": 3390,
      "not un": 3391,
      "comb": 3392,
      "compreh": 3393,
      "impres": 3394,
      "ought to ": 3395,
      "tail ": 3396,
      "blows ": 3397,
      "shot ": 3398,
      "e . A": 3399,
      " star": 3400,
      " stand ": 3401,
      "more , ": 3402,
      "ety ": 3403,
      "pread ": 3404,
      "; and so ": 3405,
      "def": 3406,
      "spout": 3407,
      "me to ": 3408,
      "der , ": 3409,
      " them . ": 3410,
      "mov": 3411,
      "which is ": 3412,
      "what is ": 3413,
      "mates , ": 3414,
      "carry ": 3415,
      "soci": 3416,
      "fiel": 3417,
      "fiery ": 3418,
      "fish , ": 3419,
      "load": 3420,
      "lifted ": 3421,
      "perm whale ": 3422,
      ", till": 3423,
      "civi": 3424,
      "cutting ": 3425,
      "Pequod , ": 3426,
      "boats , ": 3427,
      "attend": 3428,
      "land , ": 3429,
      "finally ": 3430,
      "nature ": 3431,
      "ship ' s ": 3432,
      "Stubb ' s ": 3433,
      "aught ": 3434,
      "easy ": 3435,
      "line , ": 3436,
      "passed ": 3437,
      "passage ": 3438,
      "floating ": 3439,
      "speci": 3440,
      "declar": 3441,
      "centur": 3442,
      "except ": 3443,
      "beneath": 3444,
      "beneath the ": 3445,
      "chool": 3446,
      "difference ": 3447,
      "into the s": 3448,
      "fishermen ": 3449,
      "blacksmi": 3450,
      "number ": 3451,
      "confid": 3452,
      "mariners ": 3453,
      "fixed ": 3454,
      "carpenter ": 3455,
      "point of ": 3456,
      "!--": 3457,
      "ET": 3458,
      "Good ": 3459,
      "Jo": 3460,
      "Jap": 3461,
      "Un": 3462,
      "bright ": 3463,
      "dam ": 3464,
      "done , ": 3465,
      "gin ": 3466,
      "her , ": 3467,
      "hull ": 3468,
      "lam": 3469,
      "lung": 3470,
      "nos": 3471,
      "nail": 3472,
      "rum": 3473,
      "rying ": 3474,
      "sen": 3475,
      "saw": 3476,
      "s there ": 3477,
      "shad": 3478,
      "said": 3479,
      "ted to ": 3480,
      "utter": 3481,
      "vit": 3482,
      "wom": 3483,
      "e ! ": 3484,
      "in these ": 3485,
      "er to ": 3486,
      "ings . ": 3487,
      "al st": 3488,
      "or t": 3489,
      "arti": 3490,
      "ed out ": 3491,
      ". ' ": 3492,
      " , but ": 3493,
      "ing out ": 3494,
      "at the s": 3495,
      "stret": 3496,
      "er - ": 3497,
      "oma": 3498,
      "wheel": 3499,
      "as the s": 3500,
      "aside ": 3501,
      "lip": 3502,
      "lie ": 3503,
      "for the s": 3504,
      "it be ": 3505,
      " that he ": 3506,
      "oll ": 3507,
      "ed that the ": 3508,
      "beat ": 3509,
      "noth": 3510,
      "noon ": 3511,
      "up to ": 3512,
      "himself , ": 3513,
      "die ": 3514,
      "contain": 3515,
      "for it ": 3516,
      "immedi": 3517,
      "e . It ": 3518,
      ", thr": 3519,
      "you are ": 3520,
      "Stand ": 3521,
      "him ; ": 3522,
      "? D": 3523,
      "? And ": 3524,
      "a se": 3525,
      "spar": 3526,
      "worth": 3527,
      "eward ": 3528,
      "mod": 3529,
      "ar - ": 3530,
      "which he ": 3531,
      "udg": 3532,
      "hearts ": 3533,
      "vice ": 3534,
      " times , ": 3535,
      "marvell": 3536,
      "coat ": 3537,
      "fath": 3538,
      "corp": 3539,
      "voc": 3540,
      "piec": 3541,
      "curi": 3542,
      "deser": 3543,
      "desir": 3544,
      "descend": 3545,
      "somehow ": 3546,
      "knew": 3547,
      "instant": 3548,
      "cutt": 3549,
      ". Now ": 3550,
      "horse ": 3551,
      "ship , ": 3552,
      "half": 3553,
      "pull ": 3554,
      "long s": 3555,
      "stranger ": 3556,
      "I ' m ": 3557,
      "suppos": 3558,
      "lightest ": 3559,
      "rolling ": 3560,
      "empty ": 3561,
      "Sperm Whale ' s ": 3562,
      "Engl": 3563,
      "Jonah": 3564,
      "straight ": 3565,
      "visit": 3566,
      "Moby Dick": 3567,
      "country ": 3568,
      "Peleg , ": 3569,
      "bottom": 3570,
      "holding ": 3571,
      "power ": 3572,
      "foot ": 3573,
      "revol": 3574,
      "person": 3575,
      "manner ": 3576,
      "previous ": 3577,
      "darkness ": 3578,
      "leviathan ": 3579,
      "permac": 3580,
      "employ": 3581,
      "precisely ": 3582,
      "exactly ": 3583,
      "custom": 3584,
      "Dutch ": 3585,
      "imagin": 3586,
      "civili": 3587,
      "! s": 3588,
      "Dea": 3589,
      "For": 3590,
      "Gab": 3591,
      "No , ": 3592,
      "Oh ! ": 3593,
      "You ": 3594,
      "bow ": 3595,
      "bound ": 3596,
      "cow": 3597,
      "fow": 3598,
      "fail": 3599,
      "gam": 3600,
      "gig": 3601,
      "je": 3602,
      "jolly ": 3603,
      "king": 3604,
      "lof": 3605,
      "let": 3606,
      "late ": 3607,
      "less , ": 3608,
      "mel": 3609,
      "obe": 3610,
      "pon ": 3611,
      "ped": 3612,
      "pap": 3613,
      "r ": 3614,
      "rose ": 3615,
      "ute ": 3616,
      "val ": 3617,
      "vill": 3618,
      "wee": 3619,
      "s his ": 3620,
      "individ": 3621,
      "ane ": 3622,
      "ones ": 3623,
      "end , ": 3624,
      "theless ": 3625,
      "ed with the ": 3626,
      ". R": 3627,
      ". What ": 3628,
      " , I ": 3629,
      " , 00": 3630,
      "reck": 3631,
      "at last , ": 3632,
      "as this ": 3633,
      "chain": 3634,
      "; no ": 3635,
      "; but the ": 3636,
      "hair": 3637,
      "it were ": 3638,
      "ils ": 3639,
      "ured ": 3640,
      "with that ": 3641,
      "best": 3642,
      "event": 3643,
      "eventy ": 3644,
      "butt": 3645,
      "amb": 3646,
      "abo": 3647,
      "dies ": 3648,
      "e the": 3649,
      " top ": 3650,
      "ulous ": 3651,
      "actu": 3652,
      "not a ": 3653,
      "adly ": 3654,
      "added ": 3655,
      "for an ": 3656,
      "immen": 3657,
      "pock": 3658,
      "blow ": 3659,
      "so as to ": 3660,
      "? But ": 3661,
      "Thou ": 3662,
      "sions ": 3663,
      "harks ": 3664,
      "from its ": 3665,
      "man who ": 3666,
      "thern ": 3667,
      "angu": 3668,
      "now s": 3669,
      "overboard ": 3670,
      "ers of the ": 3671,
      "vig": 3672,
      "going to ": 3673,
      ". If ": 3674,
      "ful , ": 3675,
      "captur": 3676,
      "ing some ": 3677,
      "asses ": 3678,
      "over his ": 3679,
      "lock": 3680,
      "love ": 3681,
      ", tak": 3682,
      "ashor": 3683,
      "command ": 3684,
      "death": 3685,
      "deadly ": 3686,
      "instances ": 3687,
      "tion of ": 3688,
      "helm ": 3689,
      "below": 3690,
      "horr": 3691,
      "white whale ": 3692,
      "negr": 3693,
      "getting ": 3694,
      "distant ": 3695,
      "formed ": 3696,
      "began ": 3697,
      "regularly ": 3698,
      "super": 3699,
      "will , ": 3700,
      "lightning ": 3701,
      "bulk ": 3702,
      "Flask": 3703,
      "doubl": 3704,
      "occur": 3705,
      "ations , ": 3706,
      "windlas": 3707,
      "latitud": 3708,
      "mass ": 3709,
      "bearing ": 3710,
      "complete ": 3711,
      "rising ": 3712,
      ". You ": 3713,
      "doubt": 3714,
      "circumstance ": 3715,
      "vicin": 3716,
      "pipe ": 3717,
      "ull , ": 3718,
      "suspend": 3719,
      "horizont": 3720,
      "yellow ": 3721,
      "battle ": 3722,
      "hidden ": 3723,
      "Atlan": 3724,
      "in order to ": 3725,
      "Gabri": 3726,
      "All ": 3727,
      "ES": 3728,
      "E , ": 3729,
      "Ger": 3730,
      "Ish": 3731,
      "I see ": 3732,
      "Pol": 3733,
      "St . ": 3734,
      "ax": 3735,
      "bold": 3736,
      "cat": 3737,
      "dat ": 3738,
      "ds of ": 3739,
      "drop": 3740,
      "eh ": 3741,
      "fli": 3742,
      "gs ": 3743,
      "gn ": 3744,
      "iber": 3745,
      "lab": 3746,
      "mall": 3747,
      "ock": 3748,
      "pti": 3749,
      "prac": 3750,
      "roo": 3751,
      "sat ": 3752,
      "sym": 3753,
      "savage ": 3754,
      "table ": 3755,
      "uvi": 3756,
      "vag": 3757,
      "wed": 3758,
      "yard ": 3759,
      "yards ": 3760,
      "ero": 3761,
      "ers , and ": 3762,
      "antic": 3763,
      "on this ": 3764,
      "alive ": 3765,
      "arri": 3766,
      ". But , ": 3767,
      "- f": 3768,
      "chest ": 3769,
      "in any ": 3770,
      "; his ": 3771,
      "; nor ": 3772,
      "; but , ": 3773,
      "ession ": 3774,
      " to me ": 3775,
      "wit": 3776,
      "ford ": 3777,
      "it so ": 3778,
      "itself , ": 3779,
      "iss": 3780,
      "is t": 3781,
      "issu": 3782,
      "uns": 3783,
      "ed there ": 3784,
      "with such ": 3785,
      "became ": 3786,
      " . What ": 3787,
      "I could ": 3788,
      "race ": 3789,
      "uppos": 3790,
      "uppose ": 3791,
      "died ": 3792,
      "ally": 3793,
      "allow ": 3794,
      "whisper": 3795,
      "one of ": 3796,
      "! B": 3797,
      "with him ": 3798,
      "ac ": 3799,
      "const": 3800,
      "adm": 3801,
      "perpen": 3802,
      "eca": 3803,
      "for a s": 3804,
      "by , ": 3805,
      "by his ": 3806,
      "by its ": 3807,
      "ough , ": 3808,
      "blind": 3809,
      ", than ": 3810,
      "exam": 3811,
      "you must ": 3812,
      "you can ": 3813,
      "a small ": 3814,
      "sive ": 3815,
      "sign ": 3816,
      "words ": 3817,
      "ells ": 3818,
      "by that ": 3819,
      "aked ": 3820,
      "go to ": 3821,
      "grow ": 3822,
      "ailors ": 3823,
      "hips ": 3824,
      "princi": 3825,
      "up a ": 3826,
      "omething ": 3827,
      "ons and ": 3828,
      "care": 3829,
      "if he ": 3830,
      "way of ": 3831,
      "indis": 3832,
      "of such ": 3833,
      "fulness ": 3834,
      "disappear": 3835,
      "obli": 3836,
      "cursed ": 3837,
      "interval ": 3838,
      "tion of the ": 3839,
      "hot ": 3840,
      "oulder": 3841,
      "top ": 3842,
      "away , ": 3843,
      "myster": 3844,
      "drown": 3845,
      "ences ": 3846,
      "pair": 3847,
      "hunter": 3848,
      "ists ": 3849,
      "headed ": 3850,
      "calm ": 3851,
      "mutt": 3852,
      "had the ": 3853,
      "look - ": 3854,
      "life - ": 3855,
      "regular ": 3856,
      "let us ": 3857,
      "head , and ": 3858,
      "advance ": 3859,
      "profound ": 3860,
      "gentlemen ": 3861,
      "doubt ": 3862,
      "roubl": 3863,
      "concerning ": 3864,
      "esides , ": 3865,
      ". CHAPTER 1": 3866,
      "everything ": 3867,
      "wooden ": 3868,
      "aspect ": 3869,
      "level ": 3870,
      "quickly ": 3871,
      "gazing ": 3872,
      "front ": 3873,
      "OOK ": 3874,
      "out of sight ": 3875,
      "omahaw": 3876,
      "fathom": 3877,
      "Ishma": 3878,
      "perpendic": 3879,
      "; there ": 3880,
      "Bed": 3881,
      "Come ": 3882,
      "Don ": 3883,
      "Gu": 3884,
      "Por": 3885,
      "RA": 3886,
      "SP": 3887,
      "So ": 3888,
      "TU": 3889,
      "Tru": 3890,
      "Yo": 3891,
      "aint": 3892,
      "ber , ": 3893,
      "fin ": 3894,
      "fear ": 3895,
      "gold": 3896,
      "glim": 3897,
      "hover": 3898,
      "ither": 3899,
      "jest": 3900,
      "kick": 3901,
      "lon": 3902,
      "n , ": 3903,
      "nose ": 3904,
      "ran ": 3905,
      "som": 3906,
      "sum": 3907,
      "sent ": 3908,
      "uous ": 3909,
      "vain ": 3910,
      "want ": 3911,
      "well , ": 3912,
      "yes , ": 3913,
      "year ": 3914,
      "s a ": 3915,
      "s of s": 3916,
      " thy": 3917,
      " thing": 3918,
      "in th": 3919,
      "er than ": 3920,
      "ons of ": 3921,
      "outed ": 3922,
      "alk ": 3923,
      "arn": 3924,
      "ary , ": 3925,
      ". \"' ": 3926,
      "hir": 3927,
      "histor": 3928,
      " ship ": 3929,
      "and his ": 3930,
      "real ": 3931,
      "at sea ": 3932,
      "ats ": 3933,
      "ated , ": 3934,
      "elev": 3935,
      "of - ": 3936,
      "- hol": 3937,
      "cher": 3938,
      "chur": 3939,
      "; in ": 3940,
      "hair ": 3941,
      "lit ": 3942,
      "as an ": 3943,
      "olem": 3944,
      "ilar ": 3945,
      "univer": 3946,
      "edit": 3947,
      " . But": 3948,
      " . There ": 3949,
      "I am": 3950,
      "raight ": 3951,
      "sec": 3952,
      " the sp": 3953,
      "rob": 3954,
      "rot": 3955,
      "whir": 3956,
      "intel": 3957,
      "or a ": 3958,
      "! \" ": 3959,
      "with an ": 3960,
      "acious ": 3961,
      "connec": 3962,
      "blank": 3963,
      "umul": 3964,
      "e . And ": 3965,
      "e . He ": 3966,
      "deta": 3967,
      "old man ' s ": 3968,
      "word , ": 3969,
      "worship": 3970,
      "own - ": 3971,
      "my own ": 3972,
      "evertheless , ": 3973,
      "aint ": 3974,
      "ye ! ": 3975,
      "elled ": 3976,
      "opin": 3977,
      "ousand": 3978,
      "warm ": 3979,
      " seas": 3980,
      "outs ": 3981,
      "grown ": 3982,
      "asted ": 3983,
      "look , ": 3984,
      "boat was ": 3985,
      "ings and ": 3986,
      "meth": 3987,
      "desper": 3988,
      "dart": 3989,
      "otherwise ": 3990,
      "suff": 3991,
      "resembl": 3992,
      "sleep ": 3993,
      "like": 3994,
      "crew , ": 3995,
      "was this ": 3996,
      "round and ": 3997,
      "ures , ": 3998,
      " that t": 3999,
      "lowly ": 4000,
      "barbar": 4001,
      "lished ": 4002,
      "humor": 4003,
      "I ' ll": 4004,
      "quick ": 4005,
      "face , ": 4006,
      "moment , ": 4007,
      "child ": 4008,
      "calcul": 4009,
      "often": 4010,
      "Starbuck ' s ": 4011,
      "lightly ": 4012,
      " turns ": 4013,
      "a strange ": 4014,
      ". Oh , ": 4015,
      "hammer": 4016,
      "extrem": 4017,
      "burst ": 4018,
      "remains ": 4019,
      "delic": 4020,
      "precise ": 4021,
      "midnight ": 4022,
      "mast - head": 4023,
      "following ": 4024,
      "ouching the ": 4025,
      "struc": 4026,
      "does not ": 4027,
      "wards , ": 4028,
      "ISH": 4029,
      " something ": 4030,
      "chapter ": 4031,
      ". Mean": 4032,
      "cloth": 4033,
      "a thousand ": 4034,
      "OF THE ": 4035,
      "ucc": 4036,
      "rigging ": 4037,
      "New Bed": 4038,
      "question": 4039,
      "whiteness ": 4040,
      "leaning ": 4041,
      "intervals ": 4042,
      "enough to ": 4043,
      "rapidly ": 4044,
      "South ": 4045,
      "repeated ": 4046,
      "?\" said ": 4047,
      "by no means ": 4048,
      "childr": 4049,
      ",\" said I , \" ": 4050,
      "prodigious ": 4051,
      "permaceti": 4052,
      " SAILOR": 4053,
      "He": 4054,
      "IM": 4055,
      "Isl": 4056,
      "I . ( ": 4057,
      "OW": 4058,
      "SI": 4059,
      "Sir ": 4060,
      "Sea ": 4061,
      "THA": 4062,
      "With ": 4063,
      "ban": 4064,
      "bes": 4065,
      "bed , ": 4066,
      "cious ": 4067,
      "catch": 4068,
      "dg": 4069,
      "ds , ": 4070,
      "eu": 4071,
      "eur": 4072,
      "ece ": 4073,
      "f the ": 4074,
      "foun": 4075,
      "fic": 4076,
      "ffl": 4077,
      "good": 4078,
      "hence ": 4079,
      "ith": 4080,
      "ix ": 4081,
      "jun": 4082,
      "me , and ": 4083,
      "native ": 4084,
      "oci": 4085,
      "oil , ": 4086,
      "pad": 4087,
      "ron": 4088,
      "sy ": 4089,
      "turn": 4090,
      "wan": 4091,
      "wai": 4092,
      "zy ": 4093,
      " twi": 4094,
      " turn ": 4095,
      " then": 4096,
      "incl": 4097,
      "influ": 4098,
      "ere , and ": 4099,
      "on , and ": 4100,
      "ening ": 4101,
      "ouched ": 4102,
      "ority ": 4103,
      "ed me ": 4104,
      "hither": 4105,
      " side ": 4106,
      "and fr": 4107,
      "reco": 4108,
      "refer": 4109,
      "atis": 4110,
      "stop": 4111,
      "a man ": 4112,
      "els": 4113,
      "what the ": 4114,
      "es in ": 4115,
      "es -- ": 4116,
      "chee": 4117,
      "chanc": 4118,
      "in ' ": 4119,
      "in our ": 4120,
      "; not ": 4121,
      "; if ": 4122,
      "hail": 4123,
      "as a s": 4124,
      "forem": 4125,
      "it not ": 4126,
      "it had ": 4127,
      "eak ": 4128,
      "illi": 4129,
      "unaccount": 4130,
      "s , and the ": 4131,
      "buoy": 4132,
      " . O": 4133,
      " . T": 4134,
      " . I ": 4135,
      "ve the ": 4136,
      "nois": 4137,
      "I would ": 4138,
      "I can ": 4139,
      "seen": 4140,
      "sett": 4141,
      "ooth": 4142,
      "up to the ": 4143,
      "you se": 4144,
      "all the s": 4145,
      "n ' t": 4146,
      "ounds ": 4147,
      "one of those ": 4148,
      "acy ": 4149,
      "act of ": 4150,
      "perf": 4151,
      "perceiv": 4152,
      "ect": 4153,
      "plung": 4154,
      "pot ": 4155,
      "tted ": 4156,
      "ble , ": 4157,
      "expec": 4158,
      "whale is ": 4159,
      "prev": 4160,
      "s . It ": 4161,
      "deem": 4162,
      "spor": 4163,
      "parted ": 4164,
      "six": 4165,
      "aid , ": 4166,
      " there was ": 4167,
      "angel": 4168,
      "ous t": 4169,
      "ough - ": 4170,
      "which I ": 4171,
      "projec": 4172,
      "udder": 4173,
      "we have ": 4174,
      "we had ": 4175,
      "ers and ": 4176,
      "heart": 4177,
      "ail , ": 4178,
      "hip , ": 4179,
      "Quak": 4180,
      "own s": 4181,
      "door": 4182,
      "will not ": 4183,
      "ings of the ": 4184,
      "ence to ": 4185,
      "cano": 4186,
      "log ": 4187,
      "off , ": 4188,
      "do you ": 4189,
      ". How ": 4190,
      "leav": 4191,
      " . \" The ": 4192,
      "every one ": 4193,
      "cienti": 4194,
      "could be ": 4195,
      "mix": 4196,
      ". No ": 4197,
      "can be ": 4198,
      "help": 4199,
      "below ": 4200,
      "month": 4201,
      "was to ": 4202,
      ". For": 4203,
      "attoo": 4204,
      "made a ": 4205,
      "ency ": 4206,
      "such an ": 4207,
      "lowered ": 4208,
      "brave ": 4209,
      "came to ": 4210,
      "pair ": 4211,
      "invis": 4212,
      "hunted ": 4213,
      "barrel": 4214,
      "fact": 4215,
      "circle ": 4216,
      "teen ": 4217,
      "heaven": 4218,
      "occup": 4219,
      "cabin": 4220,
      "natural": 4221,
      "preced": 4222,
      "planks ": 4223,
      "giving ": 4224,
      "pens": 4225,
      "mast - heads ": 4226,
      "followed ": 4227,
      "legs ": 4228,
      "whale - boat ": 4229,
      "didn ' t ": 4230,
      "itten ": 4231,
      ". In the ": 4232,
      ". Yet ": 4233,
      "igh ": 4234,
      "fishery , ": 4235,
      " sea - ": 4236,
      "carried ": 4237,
      "largest ": 4238,
      "business of ": 4239,
      "answer": 4240,
      "ultane": 4241,
      "signific": 4242,
      "One ": 4243,
      "originally ": 4244,
      "furnish": 4245,
      "their ": 4246,
      "attach": 4247,
      "Christian ": 4248,
      "Pacific": 4249,
      "Pacific ": 4250,
      "mistak": 4251,
      "learned ": 4252,
      "reliev": 4253,
      "exclaim": 4254,
      "soul , ": 4255,
      "lofty ": 4256,
      "negro ": 4257,
      "intellig": 4258,
      "! there ": 4259,
      "\" that ": 4260,
      ",' s": 4261,
      "..": 4262,
      ".* ": 4263,
      "AG": 4264,
      "Col": 4265,
      "Coff": 4266,
      "EE": 4267,
      "ED ": 4268,
      "Fast ": 4269,
      "God , ": 4270,
      "My ": 4271,
      "Nor": 4272,
      "OM": 4273,
      "Tur": 4274,
      "Well , ": 4275,
      "ather ": 4276,
      "binn": 4277,
      "ce , ": 4278,
      "cam": 4279,
      "dru": 4280,
      "dying ": 4281,
      "dinn": 4282,
      "fall ": 4283,
      "fet": 4284,
      "four": 4285,
      "fold": 4286,
      "get": 4287,
      "game ": 4288,
      "ggl": 4289,
      "hast ": 4290,
      "ken": 4291,
      "keleton ": 4292,
      "luck": 4293,
      "may": 4294,
      "ple ": 4295,
      "pay ": 4296,
      "past ": 4297,
      "ras": 4298,
      "roll ": 4299,
      "sav": 4300,
      "scor": 4301,
      "s to be ": 4302,
      "scra": 4303,
      "tr": 4304,
      "veng": 4305,
      "e it ": 4306,
      "d - ": 4307,
      "erg": 4308,
      " the most ": 4309,
      "ingu": 4310,
      "als , ": 4311,
      "arly ": 4312,
      "oft , ": 4313,
      "ed upon ": 4314,
      "ed upon the ": 4315,
      "and most ": 4316,
      "remark": 4317,
      "at every ": 4318,
      "sto": 4319,
      "st thou ": 4320,
      "a p": 4321,
      "ower ": 4322,
      "whar": 4323,
      "of him ": 4324,
      "of your ": 4325,
      "es were ": 4326,
      "- white ": 4327,
      "in her ": 4328,
      "; we ": 4329,
      "; how ": 4330,
      " to see ": 4331,
      "lives ": 4332,
      "as for ": 4333,
      "is his ": 4334,
      "e , as ": 4335,
      "his head ": 4336,
      "' s , ": 4337,
      "emper": 4338,
      "unn": 4339,
      "with some ": 4340,
      "bubbl": 4341,
      " . In ": 4342,
      " . For ": 4343,
      "I must ": 4344,
      "tively ": 4345,
      "was heard ": 4346,
      "que ": 4347,
      "e these ": 4348,
      "all - ": 4349,
      "usse": 4350,
      "ide , ": 4351,
      "with a s": 4352,
      "eeper": 4353,
      "eets ": 4354,
      "ulti": 4355,
      "from their ": 4356,
      "conven": 4357,
      "comfort": 4358,
      "plum": 4359,
      "but still ": 4360,
      "taken ": 4361,
      " stru": 4362,
      "When ": 4363,
      "more than": 4364,
      "so much ": 4365,
      "so many ": 4366,
      "? It ": 4367,
      "main": 4368,
      "ub ": 4369,
      "part , ": 4370,
      "s of a ": 4371,
      "worl": 4372,
      "hark ": 4373,
      "like to ": 4374,
      "moke ": 4375,
      "motion": 4376,
      ", that ' s ": 4377,
      "ends ": 4378,
      "ceive ": 4379,
      "vibr": 4380,
      "gods ": 4381,
      "when a ": 4382,
      "astern ": 4383,
      "pring ": 4384,
      "pros": 4385,
      "ill , ": 4386,
      "firm": 4387,
      "who have ": 4388,
      "marked ": 4389,
      "yourself ": 4390,
      "soon": 4391,
      "cried the ": 4392,
      "ing so ": 4393,
      "sweet ": 4394,
      "ts of the ": 4395,
      "lying ": 4396,
      "Whale ; the ": 4397,
      "life , ": 4398,
      "ernal ": 4399,
      "leaves ": 4400,
      "ing to his ": 4401,
      "voic": 4402,
      "pid ": 4403,
      "somehow": 4404,
      "interest ": 4405,
      "phant ": 4406,
      "cuttle ": 4407,
      "hand , and ": 4408,
      "merely ": 4409,
      "monstr": 4410,
      "appall": 4411,
      "holy ": 4412,
      "end of the ": 4413,
      "boats were ": 4414,
      "world ' s ": 4415,
      "never mind ": 4416,
      "down to ": 4417,
      "down to the ": 4418,
      "away from ": 4419,
      "lower": 4420,
      ",\" he ": 4421,
      "and turn": 4422,
      "invari": 4423,
      "hunt ": 4424,
      "pulp": 4425,
      "pulling ": 4426,
      "calm": 4427,
      "miles ": 4428,
      "skeleton ": 4429,
      "arms ": 4430,
      "Nantucket , ": 4431,
      "subjec": 4432,
      "feet in ": 4433,
      "floated ": 4434,
      ". To ": 4435,
      "upon the s": 4436,
      "let ' s ": 4437,
      " . A ": 4438,
      " . As ": 4439,
      "fright": 4440,
      "start ": 4441,
      "precious ": 4442,
      "pitch": 4443,
      "gives ": 4444,
      "limb": 4445,
      "guess ": 4446,
      "advent": 4447,
      "advanc": 4448,
      "racted ": 4449,
      " to take ": 4450,
      " thought": 4451,
      "feat": 4452,
      "ouching ": 4453,
      ". With ": 4454,
      "erior ": 4455,
      "gentlemen , ": 4456,
      " sometimes ": 4457,
      "mountain": 4458,
      "seek": 4459,
      "leeward ": 4460,
      "cheer": 4461,
      "previously ": 4462,
      "pursuit ": 4463,
      "nigh ": 4464,
      "ility ": 4465,
      "lanter": 4466,
      "CK ": 4467,
      "announc": 4468,
      "provid": 4469,
      "break ": 4470,
      "HIS ": 4471,
      "gallant ": 4472,
      "errible ": 4473,
      "sequent ": 4474,
      ".' \"' ": 4475,
      "losop": 4476,
      "Daggoo , ": 4477,
      "philosop": 4478,
      "frequently ": 4479,
      "experienc": 4480,
      "duty ": 4481,
      "Cape H": 4482,
      "Captain , ": 4483,
      "distinct ": 4484,
      "quietly ": 4485,
      "actually ": 4486,
      "doubloon ": 4487,
      "Yoj": 4488,
      "cientific ": 4489,
      "Bl": 4490,
      "Dough - ": 4491,
      "EC": 4492,
      "Eli": 4493,
      "Go": 4494,
      "Give ": 4495,
      "I shall ": 4496,
      "King ": 4497,
      "Mon": 4498,
      "No": 4499,
      "Now , ": 4500,
      "Sp": 4501,
      "VO": 4502,
      "Well ": 4503,
      "ah , ": 4504,
      "bent ": 4505,
      "bound": 4506,
      "cy ": 4507,
      "fter": 4508,
      "fain ": 4509,
      "fut": 4510,
      "gas": 4511,
      "hem": 4512,
      "keel ": 4513,
      "les , ": 4514,
      "lamp": 4515,
      "met ": 4516,
      "meet ": 4517,
      "na": 4518,
      "oil": 4519,
      "oak": 4520,
      "ppl": 4521,
      "pass ": 4522,
      "s to": 4523,
      "s they ": 4524,
      "scen": 4525,
      "vin": 4526,
      "vor": 4527,
      "ve , ": 4528,
      "vain": 4529,
      "vari": 4530,
      "were , ": 4531,
      "t and ": 4532,
      "inquir": 4533,
      "ang ": 4534,
      " the more ": 4535,
      "on their ": 4536,
      "alth": 4537,
      "ories ": 4538,
      "ar , ": 4539,
      "of , ": 4540,
      "of their": 4541,
      "then ": 4542,
      "ed from the ": 4543,
      "ed with a ": 4544,
      "o ' s ": 4545,
      " sw": 4546,
      "rear ": 4547,
      "ator ": 4548,
      "atic ": 4549,
      "stro": 4550,
      "stud": 4551,
      "omani": 4552,
      "- fish ": 4553,
      "- knif": 4554,
      "in your ": 4555,
      "in him , ": 4556,
      "habit": 4557,
      " to him ": 4558,
      " to my ": 4559,
      "lid": 4560,
      "wis": 4561,
      "is an ": 4562,
      "it would ": 4563,
      "each": 4564,
      "it that ": 4565,
      "cken ": 4566,
      "unic": 4567,
      "unning ": 4568,
      "ed this ": 4569,
      "within the ": 4570,
      "being": 4571,
      "ve to ": 4572,
      "I now ": 4573,
      "ray": 4574,
      "secur": 4575,
      "amaz": 4576,
      "whalers ": 4577,
      " thee , ": 4578,
      "both": 4579,
      "board": 4580,
      "box ": 4581,
      "all over ": 4582,
      "all hands ": 4583,
      "usual ": 4584,
      "! But ": 4585,
      "with its ": 4586,
      "ental ": 4587,
      "in the sea ": 4588,
      "aci": 4589,
      "conver": 4590,
      "not , ": 4591,
      "but one ": 4592,
      ", the Pequod ": 4593,
      "blad": 4594,
      "e . H": 4595,
      ", those ": 4596,
      "exha": 4597,
      "ets , ": 4598,
      "seldom ": 4599,
      "s . A": 4600,
      "; and when ": 4601,
      "? A": 4602,
      "? Th": 4603,
      "ed , \" ": 4604,
      "flow": 4605,
      "maint": 4606,
      "majest": 4607,
      "spi": 4608,
      "ubst": 4609,
      "sion": 4610,
      "works ": 4611,
      "grey ": 4612,
      "like an ": 4613,
      "-- this ": 4614,
      "afra": 4615,
      "no , ": 4616,
      "rud": 4617,
      "ous to ": 4618,
      "ender ": 4619,
      "now that ": 4620,
      "produc": 4621,
      "warm": 4622,
      "ed to a ": 4623,
      "ed to his ": 4624,
      "grand": 4625,
      "matter": 4626,
      "coil": 4627,
      "presum": 4628,
      ". \" A": 4629,
      "mechan": 4630,
      "father ": 4631,
      "in his own ": 4632,
      "has no ": 4633,
      "' st ": 4634,
      "down into the ": 4635,
      "lift": 4636,
      "here": 4637,
      "herea": 4638,
      ", turn": 4639,
      "into the sea ": 4640,
      "itions ": 4641,
      "handle ": 4642,
      "piece ": 4643,
      "again , and ": 4644,
      "counter ": 4645,
      "casks ": 4646,
      "somewhere ": 4647,
      ". Some ": 4648,
      "ress": 4649,
      "instantly ": 4650,
      "not t": 4651,
      "gging ": 4652,
      "monkey ": 4653,
      "monomani": 4654,
      "was t": 4655,
      "knows ": 4656,
      "TH ": 4657,
      "ereby ": 4658,
      "I saw ": 4659,
      "craw": 4660,
      "geni": 4661,
      "minds ": 4662,
      "bows ": 4663,
      ", they were ": 4664,
      "ized ": 4665,
      "barb": 4666,
      "ential ": 4667,
      "gaze ": 4668,
      "back , ": 4669,
      "must": 4670,
      "for a moment ": 4671,
      "landlord ": 4672,
      "heat ": 4673,
      "look at ": 4674,
      "missing ": 4675,
      "place , ": 4676,
      "double ": 4677,
      ". By ": 4678,
      "cabin , ": 4679,
      "remain ": 4680,
      "gradu": 4681,
      "make a ": 4682,
      "oarsmen ": 4683,
      "windward ": 4684,
      "pitch ": 4685,
      "sir .\" \" ": 4686,
      "infalli": 4687,
      "behold": 4688,
      "creatures ": 4689,
      "also , ": 4690,
      "deck , and ": 4691,
      "drive ": 4692,
      " thoughts ": 4693,
      "pict": 4694,
      "picture ": 4695,
      "ample ": 4696,
      "honour ": 4697,
      "evening ": 4698,
      "wonderful ": 4699,
      "continually ": 4700,
      "Perth ": 4701,
      "ALL": 4702,
      "known to ": 4703,
      "English": 4704,
      "needs ": 4705,
      "answer ": 4706,
      "musk": 4707,
      "true ": 4708,
      "respect": 4709,
      "excell": 4710,
      "fairly ": 4711,
      "regarded ": 4712,
      "lord , ": 4713,
      "laugh ": 4714,
      "bulwarks ": 4715,
      "involunt": 4716,
      "pagan ": 4717,
      "Daggoo ": 4718,
      "fatal ": 4719,
      "cannib": 4720,
      "cannibal": 4721,
      "don ' t": 4722,
      "quarter - deck ": 4723,
      "secret ": 4724,
      "hollow ": 4725,
      "dignity ": 4726,
      "volum": 4727,
      "morning , ": 4728,
      "Lakeman ": 4729,
      "Fedallah ": 4730,
      "approach": 4731,
      "Joh": 4732,
      "gigantic ": 4733,
      "likewise ": 4734,
      "hitherto ": 4735,
      "Elij": 4736,
      ", to be ": 4737,
      "17": 4738,
      "AP": 4739,
      "Be": 4740,
      "BY ": 4741,
      "Eg": 4742,
      "Fish": 4743,
      "I tell ": 4744,
      "RI": 4745,
      "Ram": 4746,
      "S , ": 4747,
      "Span": 4748,
      "Vir": 4749,
      "aver": 4750,
      "ahead ": 4751,
      "bis": 4752,
      "bab": 4753,
      "bru": 4754,
      "cel": 4755,
      "cell": 4756,
      "dit": 4757,
      "dread": 4758,
      "et , and ": 4759,
      "ft , ": 4760,
      "fill ": 4761,
      "fter ": 4762,
      "food ": 4763,
      "hat": 4764,
      "he , ": 4765,
      "hos": 4766,
      "hint ": 4767,
      "ix": 4768,
      "idi": 4769,
      "ior ": 4770,
      "jump ": 4771,
      "judg": 4772,
      "law ": 4773,
      "mos": 4774,
      "met": 4775,
      "ned ": 4776,
      "nur": 4777,
      "odic": 4778,
      "pub": 4779,
      "pill": 4780,
      "rare ": 4781,
      "sound ": 4782,
      "so the ": 4783,
      "ton ": 4784,
      "tri": 4785,
      "ual": 4786,
      "ves , ": 4787,
      "yard": 4788,
      "e ' s ": 4789,
      " there , and ": 4790,
      "in the same ": 4791,
      "erly ": 4792,
      "another": 4793,
      "one th": 4794,
      "ali": 4795,
      "ort ": 4796,
      "ored ": 4797,
      "arc": 4798,
      "ark ": 4799,
      "thr": 4800,
      "there ": 4801,
      "o ' ": 4802,
      "hide": 4803,
      "hill ": 4804,
      "reme ": 4805,
      "retain": 4806,
      "resting ": 4807,
      "resist": 4808,
      "ing her ": 4809,
      "ate the ": 4810,
      "stove ": 4811,
      "steward ": 4812,
      "a large ": 4813,
      "owing to the ": 4814,
      "er ! ": 4815,
      "om , ": 4816,
      "who": 4817,
      "whol": 4818,
      "of L": 4819,
      "of one ": 4820,
      "of any ": 4821,
      "ascend": 4822,
      "; when ": 4823,
      "; and that ": 4824,
      "es to the ": 4825,
      "ess , and ": 4826,
      "hast": 4827,
      "haul": 4828,
      "lion ": 4829,
      "wish": 4830,
      "as you ": 4831,
      "e , or ": 4832,
      "it ! ": 4833,
      "' em": 4834,
      "east": 4835,
      "itable ": 4836,
      "ism ": 4837,
      "urpris": 4838,
      "with the s": 4839,
      "being the ": 4840,
      "of the Pequod ": 4841,
      "even s": 4842,
      " . E": 4843,
      "ravell": 4844,
      "secu": 4845,
      "amber": 4846,
      "whale": 4847,
      "whale , and ": 4848,
      "was , ": 4849,
      "e them ": 4850,
      "board , ": 4851,
      "all t": 4852,
      "all but ": 4853,
      "all hand": 4854,
      "used ": 4855,
      "uspend": 4856,
      "idel": 4857,
      "intol": 4858,
      "! and ": 4859,
      "! I ": 4860,
      "from this ": 4861,
      "not one ": 4862,
      "al and ": 4863,
      "admir": 4864,
      "comfor": 4865,
      "but his ": 4866,
      "impossible ": 4867,
      "out his ": 4868,
      "e . But": 4869,
      " strang": 4870,
      "Why ": 4871,
      "Where ": 4872,
      "had not ": 4873,
      "s . And ": 4874,
      "aye ": 4875,
      "? N": 4876,
      "flew ": 4877,
      "flash": 4878,
      "now and then ": 4879,
      "from all ": 4880,
      "-- though ": 4881,
      " there ' s ": 4882,
      "mother": 4883,
      "ing the t": 4884,
      "which had ": 4885,
      "what he ": 4886,
      "cream": 4887,
      "ceas": 4888,
      " seated ": 4889,
      "heard": 4890,
      "waters , ": 4891,
      "grow": 4892,
      "astern": 4893,
      "prou": 4894,
      "Whale , ": 4895,
      "glory ": 4896,
      "who had ": 4897,
      "careful ": 4898,
      "marble ": 4899,
      "tic , ": 4900,
      "ounding ": 4901,
      "streng": 4902,
      "must have been ": 4903,
      "utmost ": 4904,
      "assum": 4905,
      "harpoon , ": 4906,
      "swung ": 4907,
      " thrown ": 4908,
      "canv": 4909,
      "loose ": 4910,
      "leave ": 4911,
      "engra": 4912,
      "somewhat ": 4913,
      "dart ": 4914,
      "interest": 4915,
      "phren": 4916,
      "instance ": 4917,
      "instinc": 4918,
      "instant , ": 4919,
      "however": 4920,
      ". Not ": 4921,
      "can ' t ": 4922,
      "merchant ": 4923,
      "hort ": 4924,
      "much as ": 4925,
      "still more ": 4926,
      "; then , ": 4927,
      "called a ": 4928,
      "ed by a ": 4929,
      "my t": 4930,
      "ies of the ": 4931,
      "pace ": 4932,
      "hump": 4933,
      "join": 4934,
      "but that ": 4935,
      "passing ": 4936,
      "former ": 4937,
      "ranean ": 4938,
      "armed ": 4939,
      "height ": 4940,
      "puff": 4941,
      "float ": 4942,
      "--\" \" ": 4943,
      " taking ": 4944,
      "grave ": 4945,
      "alongside ": 4946,
      " , as if ": 4947,
      "started ": 4948,
      "deliber": 4949,
      "behind": 4950,
      "vessels ": 4951,
      " spir": 4952,
      "Peleg": 4953,
      " should be ": 4954,
      "murmur": 4955,
      "masts ": 4956,
      "error": 4957,
      "red to ": 4958,
      "drop ": 4959,
      "famili": 4960,
      " the ship , ": 4961,
      "Aye , aye , ": 4962,
      "carries ": 4963,
      "steady ": 4964,
      "above the ": 4965,
      "storm ": 4966,
      "pleasant ": 4967,
      "welve ": 4968,
      "measure": 4969,
      "globe ": 4970,
      "winds ": 4971,
      "reached ": 4972,
      "fancy ": 4973,
      "new - ": 4974,
      "cruising ": 4975,
      "anchor ": 4976,
      "destroy": 4977,
      "intense ": 4978,
      "hammock ": 4979,
      "rying to ": 4980,
      "gale ": 4981,
      "extern": 4982,
      "breeze ": 4983,
      "increas": 4984,
      "possess": 4985,
      "important ": 4986,
      "succe": 4987,
      "French ": 4988,
      "opposite ": 4989,
      "vapour": 4990,
      "chiefly ": 4991,
      "Loose ": 4992,
      "at the same time ": 4993,
      "emporary ": 4994,
      "instead of ": 4995,
      "Radney ": 4996,
      "glimp": 4997,
      "and fro ": 4998,
      "recogn": 4999,
      "ussey ": 5000,
      "Dough - Bo": 5001,
      "exhaust": 5002,
      "Egy": 5003,
      " ; ": 5004,
      ").-- ": 5005,
      ", the same ": 5006,
      "Afri": 5007,
      "Car": 5008,
      "Em": 5009,
      "FOR": 5010,
      "LE": 5011,
      "OC": 5012,
      "Pro": 5013,
      "Sund": 5014,
      "Ta": 5015,
      "Up ": 5016,
      "Yet ": 5017,
      "bat": 5018,
      "bad ": 5019,
      "book": 5020,
      "cover ": 5021,
      "dl": 5022,
      "dare ": 5023,
      "eat ": 5024,
      "eat": 5025,
      "eer ": 5026,
      "either": 5027,
      "fing": 5028,
      "fly ": 5029,
      "fil": 5030,
      "gain ": 5031,
      "hall ": 5032,
      "hell ": 5033,
      "iant ": 5034,
      "jum": 5035,
      "ke , ": 5036,
      "ke the ": 5037,
      "ls ": 5038,
      "lad ": 5039,
      "lances ": 5040,
      "nin": 5041,
      "nex": 5042,
      "nerv": 5043,
      "naught ": 5044,
      "oar ": 5045,
      "oh ": 5046,
      "ogn": 5047,
      "oh , ": 5048,
      "py": 5049,
      "ply ": 5050,
      "pole ": 5051,
      "rom ": 5052,
      "rush ": 5053,
      "snat": 5054,
      "spread ": 5055,
      "ted , ": 5056,
      "test ": 5057,
      "uch": 5058,
      "uable ": 5059,
      "ustr": 5060,
      "vent": 5061,
      "y to the ": 5062,
      "yph": 5063,
      "yet the ": 5064,
      " ten": 5065,
      "s , that ": 5066,
      " though the ": 5067,
      " thousand ": 5068,
      "ines ": 5069,
      "inches ": 5070,
      "ers": 5071,
      "erve ": 5072,
      "erved ": 5073,
      "anx": 5074,
      "oni": 5075,
      "encounter ": 5076,
      "ing through ": 5077,
      "aloft": 5078,
      "ality , ": 5079,
      "or , and ": 5080,
      "or three ": 5081,
      "thing , ": 5082,
      "ed my ": 5083,
      " say ": 5084,
      " sta": 5085,
      " soon ": 5086,
      "and - ": 5087,
      "reel": 5088,
      "recor": 5089,
      "relig": 5090,
      "ing from the ": 5091,
      "stat": 5092,
      "a white ": 5093,
      "owards ": 5094,
      "when s": 5095,
      "of M": 5096,
      "of what ": 5097,
      "of our ": 5098,
      "of her ": 5099,
      "- of - ": 5100,
      "ask ": 5101,
      "asked ": 5102,
      "in - ": 5103,
      "in which": 5104,
      "; as ": 5105,
      "; or ": 5106,
      "; only ": 5107,
      " to have ": 5108,
      " to do ": 5109,
      "lied ": 5110,
      "lighted ": 5111,
      "ghost ": 5112,
      "for their ": 5113,
      "he could ": 5114,
      "it has ": 5115,
      "' ll": 5116,
      "on deck ": 5117,
      "eam": 5118,
      "each s": 5119,
      "is th": 5120,
      "is there ": 5121,
      "is to be ": 5122,
      "island": 5123,
      "olong": 5124,
      "emin": 5125,
      "emat": 5126,
      "embrac": 5127,
      "of the whale . ": 5128,
      "s , he ": 5129,
      "s , but ": 5130,
      "buil": 5131,
      "rie": 5132,
      " . R": 5133,
      " . CHAPTER ": 5134,
      " . This ": 5135,
      "I do ": 5136,
      "rain": 5137,
      "sear": 5138,
      "sewhere ": 5139,
      "tiest ": 5140,
      "up , and ": 5141,
      "whaler ": 5142,
      "aband": 5143,
      "about , ": 5144,
      "ch of ": 5145,
      "dible ": 5146,
      "-- I ": 5147,
      "quant": 5148,
      "e them": 5149,
      "e that the ": 5150,
      " top - ": 5151,
      "boiling ": 5152,
      "allo": 5153,
      "all thes": 5154,
      "usion ": 5155,
      "usion": 5156,
      " this , ": 5157,
      "intent ": 5158,
      "apart ": 5159,
      "appreh": 5160,
      "! CHAPTER ": 5161,
      "with me ": 5162,
      "entr": 5163,
      "ection ": 5164,
      "plenty ": 5165,
      "for him ": 5166,
      "by any ": 5167,
      "ttering ": 5168,
      "blu": 5169,
      "bless": 5170,
      "blind ": 5171,
      "shoo": 5172,
      "show ": 5173,
      " , and a ": 5174,
      "expos": 5175,
      "s . He ": 5176,
      "so much": 5177,
      "you have ": 5178,
      "you would ": 5179,
      "you would have ": 5180,
      "? H": 5181,
      "? The ": 5182,
      "flame ": 5183,
      "flag ": 5184,
      "spare ": 5185,
      "ish , ": 5186,
      "awful ": 5187,
      "six ": 5188,
      "worn ": 5189,
      "hard": 5190,
      "on the sea ": 5191,
      "man ! ": 5192,
      "--' ": 5193,
      "affor": 5194,
      "affair": 5195,
      " there are ": 5196,
      "mother ": 5197,
      "leg , ": 5198,
      "And , ": 5199,
      "endless ": 5200,
      "prot": 5201,
      "udd": 5202,
      "vivi": 5203,
      "vigor": 5204,
      "estim": 5205,
      "god": 5206,
      "god ": 5207,
      "gris ": 5208,
      "ails ": 5209,
      "ing , but ": 5210,
      "aston": 5211,
      "prolong": 5212,
      "up his ": 5213,
      "materi": 5214,
      "sideways ": 5215,
      "own , ": 5216,
      "' tis ": 5217,
      "carrying ": 5218,
      "cross ": 5219,
      "cool": 5220,
      "capst": 5221,
      "so that the ": 5222,
      "position ": 5223,
      "here and there ": 5224,
      "brow": 5225,
      ". All ": 5226,
      "down in the ": 5227,
      "contriv": 5228,
      ", take ": 5229,
      "leagu": 5230,
      "ashore ": 5231,
      ". Though ": 5232,
      "ities , ": 5233,
      "ition , ": 5234,
      ". Such ": 5235,
      "such": 5236,
      "kne": 5237,
      "resum": 5238,
      "( S": 5239,
      "weight ": 5240,
      "know that ": 5241,
      "neither ": 5242,
      "gether": 5243,
      ". For , ": 5244,
      "minute ": 5245,
      "attenti": 5246,
      "attemp": 5247,
      " that they ": 5248,
      "bowel": 5249,
      "myself , ": 5250,
      "joy ": 5251,
      "ready to ": 5252,
      "general": 5253,
      "regular": 5254,
      "putting ": 5255,
      "sailed ": 5256,
      "sailing ": 5257,
      "upon this ": 5258,
      "his tail ": 5259,
      "stands ": 5260,
      "O ), ": 5261,
      ", there was ": 5262,
      "strain": 5263,
      "straight": 5264,
      "naturally ": 5265,
      "all sor": 5266,
      "planted ": 5267,
      "whenever ": 5268,
      "mouth , ": 5269,
      "latter ": 5270,
      "mast , ": 5271,
      "Mrs . H": 5272,
      "pale ": 5273,
      "all this , ": 5274,
      "foam": 5275,
      "lessly ": 5276,
      "velop": 5277,
      "did the ": 5278,
      "step ": 5279,
      "swimming ": 5280,
      "shark ": 5281,
      "sharks ": 5282,
      "Chin": 5283,
      "Mr . Starbuck ": 5284,
      "Jonah ' s ": 5285,
      "circumstances , ": 5286,
      "Tashtego , ": 5287,
      "killed ": 5288,
      "prairi": 5289,
      "perilous ": 5290,
      "-- that ' s ": 5291,
      "ensible ": 5292,
      "yonder ": 5293,
      "readily ": 5294,
      "destin": 5295,
      "intens": 5296,
      " standing ": 5297,
      "during the ": 5298,
      "violent ": 5299,
      "substance ": 5300,
      "mystic ": 5301,
      "Sperm Whale , ": 5302,
      "eternal ": 5303,
      "believe ": 5304,
      "on board": 5305,
      "degree ": 5306,
      "probably ": 5307,
      "promis": 5308,
      "wrinkled ": 5309,
      "body , ": 5310,
      "breez": 5311,
      "Manx": 5312,
      "elessly ": 5313,
      "occasionally ": 5314,
      "mention": 5315,
      "private ": 5316,
      "modern ": 5317,
      "critical ": 5318,
      "beyond ": 5319,
      "uperst": 5320,
      "horrible ": 5321,
      "blacksmith ": 5322,
      "marvellous ": 5323,
      "England ": 5324,
      " , 000 ": 5325,
      "immense ": 5326,
      "THAT ": 5327,
      "invisible ": 5328,
      "Fast - Fish ": 5329,
      "Yojo ": 5330,
      "Ramad": 5331,
      "hospit": 5332,
      " T": 5333,
      " ' S ": 5334,
      "! that ": 5335,
      "\" the ": 5336,
      "; st": 5337,
      "; those ": 5338,
      "Bel": 5339,
      "Char": 5340,
      "Du": 5341,
      "Der": 5342,
      "FOL": 5343,
      "First ": 5344,
      "Gr": 5345,
      "IV": 5346,
      "Is": 5347,
      "Sam": 5348,
      "Town - ": 5349,
      "Upon ": 5350,
      "With": 5351,
      "adi": 5352,
      "aul": 5353,
      "cent ": 5354,
      "coura": 5355,
      "dry ": 5356,
      "devi": 5357,
      "deter": 5358,
      "eth": 5359,
      "eous ": 5360,
      "eth ": 5361,
      "eating ": 5362,
      "fun": 5363,
      "fici": 5364,
      "gay ": 5365,
      "ip": 5366,
      "ia ": 5367,
      "ion , ": 5368,
      "ick , ": 5369,
      "ju": 5370,
      "jer": 5371,
      "kes , ": 5372,
      "loun": 5373,
      "lum": 5374,
      "leep ": 5375,
      "mol": 5376,
      "ok": 5377,
      "opar": 5378,
      "oh ! ": 5379,
      "padd": 5380,
      "ring": 5381,
      "rant ": 5382,
      "rate ": 5383,
      "sing": 5384,
      "sit ": 5385,
      "shap": 5386,
      "several ": 5387,
      "t t": 5388,
      "till": 5389,
      "trans": 5390,
      "uti": 5391,
      "went": 5392,
      "war ": 5393,
      "west": 5394,
      "wine ": 5395,
      "wood": 5396,
      "zen ": 5397,
      "inev": 5398,
      "insid": 5399,
      "indirectly ": 5400,
      "ert ": 5401,
      "eren": 5402,
      "y ' s ": 5403,
      "ond": 5404,
      "ons , ": 5405,
      "ench": 5406,
      "enchan": 5407,
      "envelop": 5408,
      "out , and ": 5409,
      "ing these ": 5410,
      "ing through the ": 5411,
      "alk": 5412,
      "alt": 5413,
      "ore": 5414,
      "arg": 5415,
      "archang": 5416,
      "ed in his ": 5417,
      "hil": 5418,
      "hill": 5419,
      "history ": 5420,
      " so": 5421,
      "rest": 5422,
      "refl": 5423,
      "ing all ": 5424,
      "ing one ": 5425,
      "ing himself ": 5426,
      "at le": 5427,
      "at length ": 5428,
      "at intervals ": 5429,
      "stir": 5430,
      "steel": 5431,
      "state ": 5432,
      "storm": 5433,
      "whom": 5434,
      "of it , ": 5435,
      "es in the ": 5436,
      "es are ": 5437,
      "- hand": 5438,
      "in all": 5439,
      "in many ": 5440,
      "; and this ": 5441,
      " to a ": 5442,
      "liest ": 5443,
      "lived ": 5444,
      "wift ": 5445,
      "ly and ": 5446,
      "as of ": 5447,
      "ghost": 5448,
      "is no ": 5449,
      "fore ": 5450,
      "for this ": 5451,
      "it . But ": 5452,
      " that is ": 5453,
      "ea , and ": 5454,
      "ist , ": 5455,
      "ere the ": 5456,
      "ilent ": 5457,
      "emi": 5458,
      "emo": 5459,
      "ements ": 5460,
      "ed th": 5461,
      "with this ": 5462,
      "beat": 5463,
      "beheld ": 5464,
      "of the great ": 5465,
      "of the whale ' s ": 5466,
      "evil ": 5467,
      "even the ": 5468,
      "bum": 5469,
      "ribu": 5470,
      "noti": 5471,
      "notic": 5472,
      "I do not ": 5473,
      "tiv": 5474,
      "oop": 5475,
      "upper": 5476,
      "amoun": 5477,
      "ch - ": 5478,
      "him that ": 5479,
      "diff": 5480,
      " the slightest ": 5481,
      "quad": 5482,
      "e then ": 5483,
      " top": 5484,
      " they": 5485,
      "bol ": 5486,
      "early ": 5487,
      "earth , ": 5488,
      "allowed ": 5489,
      "used to ": 5490,
      "! There ": 5491,
      "with what ": 5492,
      "eeth , ": 5493,
      "from s": 5494,
      "in the world ": 5495,
      "consequ": 5496,
      "conduc": 5497,
      "not only": 5498,
      "verte": 5499,
      "comrad": 5500,
      "plant": 5501,
      "for one ": 5502,
      "by far": 5503,
      "bloo": 5504,
      "blaz": 5505,
      "shoulder": 5506,
      "et - ": 5507,
      "heave ": 5508,
      "heaving ": 5509,
      "e . In": 5510,
      ", therefore , ": 5511,
      "have been": 5512,
      "have been s": 5513,
      "exist": 5514,
      " ste": 5515,
      " str": 5516,
      "morsel": 5517,
      "had a ": 5518,
      "eter ": 5519,
      "whale , the ": 5520,
      "s . There ": 5521,
      "; and as ": 5522,
      "? I ": 5523,
      "a sh": 5524,
      "clum": 5525,
      "Then ": 5526,
      "ubjec": 5527,
      "parti": 5528,
      "ishing ": 5529,
      "aw the ": 5530,
      "wore ": 5531,
      "worse ": 5532,
      "atively ": 5533,
      "harm": 5534,
      "harbor": 5535,
      "ders ": 5536,
      "gres": 5537,
      "like a s": 5538,
      "ong , ": 5539,
      " them to ": 5540,
      "-- to ": 5541,
      " there were ": 5542,
      "moving ": 5543,
      "moved ": 5544,
      "lett": 5545,
      "ude ": 5546,
      " sett": 5547,
      "if , ": 5548,
      "ified ": 5549,
      "heart , ": 5550,
      "vious ": 5551,
      "ground": 5552,
      "ance to ": 5553,
      "ing , he ": 5554,
      "man to ": 5555,
      "fire , ": 5556,
      "oven ": 5557,
      "Queen ": 5558,
      "dog ": 5559,
      "does the ": 5560,
      "carved ": 5561,
      "if it ": 5562,
      "and thr": 5563,
      "tically ": 5564,
      "ing ship ": 5565,
      ". \" H": 5566,
      ". \" S": 5567,
      "meant ": 5568,
      "E ' S ": 5569,
      "correspon": 5570,
      "discern": 5571,
      "harpoons ": 5572,
      "fice ": 5573,
      ".\" \" What ": 5574,
      "ffal": 5575,
      "loos": 5576,
      "do ye ": 5577,
      "where he ": 5578,
      "ernse": 5579,
      ", tell ": 5580,
      "bread": 5581,
      "leaping ": 5582,
      "obedi": 5583,
      "descried ": 5584,
      "others ": 5585,
      "phy": 5586,
      "ressed ": 5587,
      "all the time ": 5588,
      "however , ": 5589,
      "horn ": 5590,
      "was th": 5591,
      "was that ": 5592,
      "was there ": 5593,
      "know , ": 5594,
      "knowled": 5595,
      "after a ": 5596,
      "after all ": 5597,
      "It was ": 5598,
      "to the s": 5599,
      "it is , ": 5600,
      "down , ": 5601,
      "; so": 5602,
      "bows , ": 5603,
      "distingu": 5604,
      "brain": 5605,
      "hunters ": 5606,
      "longer ": 5607,
      "gather": 5608,
      "skull ": 5609,
      "height": 5610,
      "bore ": 5611,
      "afterwards ": 5612,
      "sailors ": 5613,
      "elephant ": 5614,
      "suppli": 5615,
      "subt": 5616,
      "itude , ": 5617,
      "prim": 5618,
      "bulk": 5619,
      "places ": 5620,
      "a str": 5621,
      "strike ": 5622,
      "extra": 5623,
      "ations of ": 5624,
      ". Beca": 5625,
      "runk ": 5626,
      "ves to ": 5627,
      "anywhere ": 5628,
      "start": 5629,
      "starboard ": 5630,
      " seems ": 5631,
      " seemed to ": 5632,
      "plank": 5633,
      "when they ": 5634,
      "ocean": 5635,
      "ocean , ": 5636,
      "in the sea , ": 5637,
      "penet": 5638,
      "counten": 5639,
      "lic ": 5640,
      "nameless ": 5641,
      "Pip , ": 5642,
      "less than ": 5643,
      "Great ": 5644,
      "years ' ": 5645,
      "years ago ": 5646,
      "consum": 5647,
      "conscious ": 5648,
      "master ": 5649,
      "period ": 5650,
      "impati": 5651,
      "dropp": 5652,
      "swim ": 5653,
      ". Like ": 5654,
      "ed together ": 5655,
      "way to ": 5656,
      "insul": 5657,
      "gentleman ": 5658,
      "ighted ": 5659,
      "deeper ": 5660,
      " . Nor ": 5661,
      "she blows ": 5662,
      "numerous ": 5663,
      "addition": 5664,
      "mount": 5665,
      "ook the ": 5666,
      "never s": 5667,
      "nevertheless ": 5668,
      "leeward , ": 5669,
      ". But this ": 5670,
      "short ": 5671,
      "main -": 5672,
      "closely ": 5673,
      "silent ": 5674,
      "greatest ": 5675,
      "excit": 5676,
      "still s": 5677,
      "wife ": 5678,
      "animal ": 5679,
      "hurri": 5680,
      "received ": 5681,
      "effec": 5682,
      "escape ": 5683,
      "bird ": 5684,
      "attered ": 5685,
      "hammock": 5686,
      "simultane": 5687,
      " . D . ": 5688,
      "wrinkles ": 5689,
      "exceedingly ": 5690,
      "billows ": 5691,
      "whale - ship ": 5692,
      "minutes ": 5693,
      "across the ": 5694,
      "moody ": 5695,
      "depth": 5696,
      "loud ": 5697,
      "faith": 5698,
      "centuries ": 5699,
      "beneath the s": 5700,
      "Japan": 5701,
      "utterly ": 5702,
      "customary ": 5703,
      "civilized ": 5704,
      "individual ": 5705,
      "indispens": 5706,
      "muttered ": 5707,
      "omahawk ": 5708,
      "Guernse": 5709,
      "golden ": 5710,
      "connected ": 5711,
      "suffici": 5712,
      "New Bedford ": 5713,
      "children ": 5714,
      "unaccountable ": 5715,
      "maintain": 5716,
      "afraid ": 5717,
      "o ' clo": 5718,
      "pyra": 5719,
      "O ), CHAPTER ": 5720,
      "Mrs . Hussey ": 5721,
      "Town - H": 5722,
      "enchanted ": 5723,
      " S": 5724,
      "!\"-- ": 5725,
      ",' ": 5726,
      "; t": 5727,
      "; these ": 5728,
      "; till ": 5729,
      "Br": 5730,
      "Bung": 5731,
      "Cet": 5732,
      "Eur": 5733,
      "Flee": 5734,
      "FRO": 5735,
      "Ge": 5736,
      "His ": 5737,
      "Is ": 5738,
      "I sh": 5739,
      "Lim": 5740,
      "NAN": 5741,
      "Oce": 5742,
      "P ": 5743,
      "Po": 5744,
      "SH": 5745,
      "Scor": 5746,
      "UR": 5747,
      "Very ": 5748,
      "Yes ": 5749,
      "YAG": 5750,
      "aul ": 5751,
      "band": 5752,
      "be th": 5753,
      "ball": 5754,
      "bold ": 5755,
      "cou": 5756,
      "cli": 5757,
      "cal ": 5758,
      "cend ": 5759,
      "dol": 5760,
      "daw": 5761,
      "dexter": 5762,
      "ech": 5763,
      "ett": 5764,
      "eight": 5765,
      "fad": 5766,
      "fight ": 5767,
      "fted ": 5768,
      "foul ": 5769,
      "gul": 5770,
      "gard": 5771,
      "hood ": 5772,
      "has the ": 5773,
      "hemp": 5774,
      "ig ": 5775,
      "jack ": 5776,
      "kin": 5777,
      "lac": 5778,
      "leet ": 5779,
      "naked ": 5780,
      "odi": 5781,
      "pant": 5782,
      "pack": 5783,
      "path": 5784,
      "pump": 5785,
      "ra ": 5786,
      "sy": 5787,
      "spl": 5788,
      "sever": 5789,
      "saf": 5790,
      "sers ": 5791,
      "sink": 5792,
      "sea , ": 5793,
      "save ": 5794,
      "single ": 5795,
      "satis": 5796,
      "tor": 5797,
      "ten ": 5798,
      "uck ": 5799,
      "us . ": 5800,
      "ugg": 5801,
      "uel ": 5802,
      "vall": 5803,
      "vest ": 5804,
      " ter": 5805,
      " try ": 5806,
      "inch": 5807,
      "inno": 5808,
      "infin": 5809,
      "in such ": 5810,
      "erect ": 5811,
      "anity ": 5812,
      " the whale ": 5813,
      "enched ": 5814,
      "ing to": 5815,
      "ings of ": 5816,
      "ing that the ": 5817,
      "ing sea ": 5818,
      "alway": 5819,
      "ors and ": 5820,
      "th , and ": 5821,
      "ed ; and ": 5822,
      "ed up ": 5823,
      ". I have ": 5824,
      "and all ": 5825,
      "rear": 5826,
      "reat ": 5827,
      "represent": 5828,
      "ing from ": 5829,
      "ing at the ": 5830,
      "at one ": 5831,
      "at any ": 5832,
      "at first ": 5833,
      "atom": 5834,
      "at their ": 5835,
      "stub": 5836,
      "a most ": 5837,
      "a certain ": 5838,
      "oward": 5839,
      "er of the ": 5840,
      "elf ": 5841,
      "elop": 5842,
      "ely , ": 5843,
      "elsewhere ": 5844,
      "whence ": 5845,
      "where , ": 5846,
      "of which ": 5847,
      "- e ": 5848,
      "ask": 5849,
      "asper": 5850,
      "ascri": 5851,
      "in a t": 5852,
      "; you ": 5853,
      "; where ": 5854,
      "; and then ": 5855,
      "; where": 5856,
      "; when , ": 5857,
      "es this ": 5858,
      "hab": 5859,
      "hailed ": 5860,
      " to - ": 5861,
      " to make ": 5862,
      "lively ": 5863,
      "wig": 5864,
      "wise , ": 5865,
      "as yet ": 5866,
      "is very ": 5867,
      "\" The ": 5868,
      "e , which ": 5869,
      "forth": 5870,
      "he sh": 5871,
      "he will ": 5872,
      "it in ": 5873,
      "it -- ": 5874,
      "' d ": 5875,
      "on ; ": 5876,
      "on one ": 5877,
      "irons ": 5878,
      "itated ": 5879,
      "its t": 5880,
      "ite of ": 5881,
      "olent ": 5882,
      "ck the ": 5883,
      "embar": 5884,
      "ement , ": 5885,
      "uring ": 5886,
      "unt ": 5887,
      "un , ": 5888,
      "uncommon ": 5889,
      "edr": 5890,
      "edy ": 5891,
      "edness ": 5892,
      "ed that": 5893,
      "beef ": 5894,
      "becomes ": 5895,
      "buo": 5896,
      " . And": 5897,
      "no tell": 5898,
      "rather": 5899,
      "rail ": 5900,
      "seat ": 5901,
      "see the ": 5902,
      "seen , ": 5903,
      "upright ": 5904,
      "amid": 5905,
      "whales": 5906,
      "whaling s": 5907,
      "was it ": 5908,
      "diver": 5909,
      "ages , ": 5910,
      "ow - ": 5911,
      "-- but ": 5912,
      "-- what ": 5913,
      "road ": 5914,
      "boy , ": 5915,
      "ears , ": 5916,
      "or four ": 5917,
      "or rather ": 5918,
      "apering ": 5919,
      "! M": 5920,
      "! P": 5921,
      "! W": 5922,
      "! Th": 5923,
      "with your ": 5924,
      "with him , ": 5925,
      "entit": 5926,
      "constern": 5927,
      "be a ": 5928,
      "compris": 5929,
      "immortal ": 5930,
      "by reason ": 5931,
      "poli": 5932,
      "tak": 5933,
      "ument ": 5934,
      "heavi": 5935,
      "e . This ": 5936,
      "e . As ": 5937,
      ", than": 5938,
      "exhi": 5939,
      "example ": 5940,
      " story ": 5941,
      "more the ": 5942,
      "th - ": 5943,
      "ets of ": 5944,
      "prey ": 5945,
      "s . But": 5946,
      "so far ": 5947,
      "ourselves ": 5948,
      "? There ": 5949,
      "cles ": 5950,
      "clut": 5951,
      "clean ": 5952,
      "spe": 5953,
      "spra": 5954,
      "ubt": 5955,
      "parate ": 5956,
      "partly ": 5957,
      "siz": 5958,
      "sight": 5959,
      "working ": 5960,
      "deriv": 5961,
      ".\" But ": 5962,
      ", that in ": 5963,
      "rue ": 5964,
      "what a ": 5965,
      "endea": 5966,
      "now the ": 5967,
      "prove ": 5968,
      "cep": 5969,
      "ds and ": 5970,
      "seems to ": 5971,
      "gott": 5972,
      "ailor ": 5973,
      "manag": 5974,
      "manif": 5975,
      "mankind ": 5976,
      "prow ": 5977,
      "up in ": 5978,
      "Quo": 5979,
      "glancing ": 5980,
      "ain ' t ": 5981,
      "head - ": 5982,
      "marks ": 5983,
      "will ye ": 5984,
      "your t": 5985,
      "presently ": 5986,
      "for the time ": 5987,
      "meat ": 5988,
      "ks and ": 5989,
      "corpor": 5990,
      "disast": 5991,
      "fied ": 5992,
      "fierce ": 5993,
      ".\" \" He ": 5994,
      "upon a ": 5995,
      "swam": 5996,
      "sway": 5997,
      "bran": 5998,
      "undul": 5999,
      "locked ": 6000,
      ". Here ": 6001,
      "leak": 6002,
      "lead ": 6003,
      "ge of ": 6004,
      "itive ": 6005,
      "commonly ": 6006,
      "communic": 6007,
      "pick": 6008,
      "pick ": 6009,
      "madness ": 6010,
      "curr": 6011,
      "cases ": 6012,
      "cask ": 6013,
      ". Se": 6014,
      ". So that ": 6015,
      "Captain Ahab": 6016,
      "Captain Bildad ": 6017,
      "interrup": 6018,
      "howling ": 6019,
      "like that ": 6020,
      ". Now": 6021,
      "not to be ": 6022,
      "apple ": 6023,
      "knowing ": 6024,
      "; thou ": 6025,
      "THE": 6026,
      "ed by his ": 6027,
      "I suppose ": 6028,
      "crazy ": 6029,
      "craft , ": 6030,
      "compan": 6031,
      "Queequeg and ": 6032,
      "bow , ": 6033,
      "myself": 6034,
      "drink ": 6035,
      "brok": 6036,
      "lowering ": 6037,
      "pulled ": 6038,
      "I ' d ": 6039,
      "aug": 6040,
      "small": 6041,
      "water - ": 6042,
      "passeng": 6043,
      "ropic": 6044,
      "milk ": 6045,
      "skin ": 6046,
      "arm , ": 6047,
      "landlord , ": 6048,
      " time to ": 6049,
      "half a ": 6050,
      "after s": 6051,
      "elephant": 6052,
      "cause ": 6053,
      "feeling ": 6054,
      "independ": 6055,
      "bench ": 6056,
      "floor ": 6057,
      "upon them ": 6058,
      ",\" said Stubb , ": 6059,
      "extreme ": 6060,
      " take the ": 6061,
      "burgh": 6062,
      "buried ": 6063,
      "bursting ": 6064,
      ". Besides , ": 6065,
      "surround": 6066,
      "written ": 6067,
      "deliver": 6068,
      "infer": 6069,
      "of the same ": 6070,
      "of the sea , ": 6071,
      "centre ": 6072,
      "behold ": 6073,
      "young": 6074,
      "- bone ": 6075,
      "charg": 6076,
      "; he ' s ": 6077,
      "Leviathan , ": 6078,
      "palm": 6079,
      "ormented ": 6080,
      ". Whe": 6081,
      "foam ": 6082,
      "captain ' s ": 6083,
      "render": 6084,
      "woe ": 6085,
      ", that this ": 6086,
      "imple ": 6087,
      "swif": 6088,
      "; that is , ": 6089,
      ". We ": 6090,
      "power": 6091,
      " thus far ": 6092,
      "foolish ": 6093,
      "saying ": 6094,
      "honour": 6095,
      "honest ": 6096,
      " . That ": 6097,
      " . They ": 6098,
      "number": 6099,
      "Perse": 6100,
      "seeing ": 6101,
      "observe ": 6102,
      "stead": 6103,
      "demand": 6104,
      "malice ": 6105,
      "pray": 6106,
      "answered ": 6107,
      "hundred and ": 6108,
      "hinted ": 6109,
      "stern , ": 6110,
      "closed ": 6111,
      "days , ": 6112,
      "weary ": 6113,
      "great t": 6114,
      "water , and ": 6115,
      "measure ": 6116,
      "nigh the ": 6117,
      "furnished ": 6118,
      " this t": 6119,
      "mostly ": 6120,
      "magnitude ": 6121,
      "each other ' s ": 6122,
      "effect ": 6123,
      "breath ": 6124,
      "horizon ": 6125,
      "opening ": 6126,
      "boys ": 6127,
      "phantom": 6128,
      "conscience ": 6129,
      " . We ": 6130,
      "cool ": 6131,
      "dashed ": 6132,
      "orial ": 6133,
      "it was that ": 6134,
      "eager ": 6135,
      "central ": 6136,
      "jacket ": 6137,
      "painted ": 6138,
      "succ": 6139,
      "mentioned ": 6140,
      "vapour ": 6141,
      "inserted ": 6142,
      "flesh ": 6143,
      "fashioned ": 6144,
      "Roman ": 6145,
      "big ": 6146,
      "main - mast ": 6147,
      "domest": 6148,
      "dangerous ": 6149,
      "pushed ": 6150,
      "immediately ": 6151,
      "aboard ": 6152,
      "e their ": 6153,
      "Atlantic ": 6154,
      "German ": 6155,
      "practical ": 6156,
      "exampl": 6157,
      "disappeared ": 6158,
      "OOK II": 6159,
      "TUCK": 6160,
      " thyself ": 6161,
      "univers": 6162,
      "umultu": 6163,
      "permaceti ": 6164,
      "significant ": 6165,
      "venge": 6166,
      "invariably ": 6167,
      "VOYAG": 6168,
      "cannibal ": 6169,
      "canvas ": 6170,
      "Egypti": 6171,
      "Derick ": 6172,
      "determin": 6173,
      "at least , ": 6174,
      "notice ": 6175,
      "Guernsey - ": 6176,
      "NANTUCK": 6177,
      " ' ": 6178,
      "! thou ": 6179,
      "1 ": 6180,
      "4 The ": 6181,
      "; some ": 6182,
      "AC": 6183,
      "A . D . ": 6184,
      "Can ": 6185,
      "Cuvi": 6186,
      "Do ": 6187,
      "Equ": 6188,
      "IT": 6189,
      "IS ": 6190,
      "Jero": 6191,
      "King - ": 6192,
      "Now ": 6193,
      "OD": 6194,
      "On ": 6195,
      "Pres": 6196,
      "Sol": 6197,
      "Tar": 6198,
      "Tranqu": 6199,
      "Upon": 6200,
      "ait": 6201,
      "aud": 6202,
      "band ": 6203,
      "bun": 6204,
      "bast": 6205,
      "bid ": 6206,
      "chim": 6207,
      "care ": 6208,
      "cut": 6209,
      "clim": 6210,
      "crot": 6211,
      "cunning ": 6212,
      "don": 6213,
      "eal ": 6214,
      "east ": 6215,
      "fat ": 6216,
      "fav": 6217,
      "finger ": 6218,
      "hook ": 6219,
      "hat , ": 6220,
      "ib": 6221,
      "ilit": 6222,
      "jew": 6223,
      "lanc": 6224,
      "lad , ": 6225,
      "langu": 6226,
      "mac": 6227,
      "mong": 6228,
      "ments ": 6229,
      "meet": 6230,
      "ne ": 6231,
      "ng ": 6232,
      "nav": 6233,
      "nations ": 6234,
      "pe ": 6235,
      "pin": 6236,
      "pet": 6237,
      "ry to ": 6238,
      "round , ": 6239,
      "sc": 6240,
      "sac": 6241,
      "scr": 6242,
      "sman , ": 6243,
      "syst": 6244,
      "school": 6245,
      "slightly ": 6246,
      "tend": 6247,
      "tue ": 6248,
      "try - ": 6249,
      "ved to ": 6250,
      "wint": 6251,
      "wound ": 6252,
      "wash": 6253,
      "weep": 6254,
      "y to": 6255,
      "yaw": 6256,
      "y there ": 6257,
      "yest": 6258,
      " things , ": 6259,
      "in to ": 6260,
      "ine , ": 6261,
      "in st": 6262,
      "in two ": 6263,
      ", as ": 6264,
      "erm": 6265,
      "erday ": 6266,
      "erably ": 6267,
      "anal": 6268,
      "ond ": 6269,
      "ones , ": 6270,
      "ens": 6271,
      "en t": 6272,
      "ension ": 6273,
      "ing those ": 6274,
      "ing towards the ": 6275,
      "aliz": 6276,
      "orous ": 6277,
      "orious ": 6278,
      "of them": 6279,
      "thing that ": 6280,
      "third ": 6281,
      "ed at ": 6282,
      "ed on the ": 6283,
      "ed into ": 6284,
      "hiti": 6285,
      "hither ": 6286,
      " saw ": 6287,
      "and sw": 6288,
      "rees ": 6289,
      "reign": 6290,
      "revel": 6291,
      "repose ": 6292,
      "remorsel": 6293,
      "ing up ": 6294,
      "at last": 6295,
      "at t": 6296,
      "ated the ": 6297,
      "ature ": 6298,
      "attain": 6299,
      "atmos": 6300,
      "stop ": 6301,
      "ow the ": 6302,
      "owever , ": 6303,
      "elast": 6304,
      "element ": 6305,
      "of old ": 6306,
      "of life ": 6307,
      "es . But ": 6308,
      "- hole ": 6309,
      "as t": 6310,
      "chow": 6311,
      "chest": 6312,
      "churn": 6313,
      "; who ": 6314,
      "; and there ": 6315,
      "litt": 6316,
      "limin": 6317,
      "wicked ": 6318,
      "wimming ": 6319,
      "as his ": 6320,
      "as soon ": 6321,
      "is all ": 6322,
      "is a s": 6323,
      "is only ": 6324,
      "is but a ": 6325,
      "\" S": 6326,
      "for , ": 6327,
      "force ": 6328,
      "fore and ": 6329,
      "forward": 6330,
      "his eyes ": 6331,
      "he can ": 6332,
      "he should ": 6333,
      "it ; and ": 6334,
      "it seemed ": 6335,
      "' re ": 6336,
      " that ' s ": 6337,
      "its of ": 6338,
      "it to the ": 6339,
      "itious ": 6340,
      "isol": 6341,
      "an ' s ": 6342,
      "an instant ": 6343,
      "illy ": 6344,
      "unseen ": 6345,
      "edic": 6346,
      "ed through the ": 6347,
      "ed through": 6348,
      "withdraw": 6349,
      "beth": 6350,
      "been the ": 6351,
      "of the whale , ": 6352,
      "event ": 6353,
      " . L": 6354,
      "I guess ": 6355,
      "ram": 6356,
      "rah ": 6357,
      "raight": 6358,
      "rapid ": 6359,
      "seated ": 6360,
      "ooping ": 6361,
      "uplifted ": 6362,
      "was in the ": 6363,
      "was seen ": 6364,
      "absent ": 6365,
      "him the ": 6366,
      "aged ": 6367,
      "-- all ": 6368,
      "quo": 6369,
      "e those ": 6370,
      "rod ": 6371,
      "rock ": 6372,
      "box": 6373,
      "allow": 6374,
      "allud": 6375,
      "ally the ": 6376,
      "all round ": 6377,
      "us the ": 6378,
      "iden": 6379,
      " this is ": 6380,
      "or in ": 6381,
      "! L": 6382,
      "! T": 6383,
      "! And ": 6384,
      "with all their ": 6385,
      "eech": 6386,
      "conc": 6387,
      "conqu": 6388,
      "consist": 6389,
      "congreg": 6390,
      "not be ": 6391,
      "adequ": 6392,
      "ke - ": 6393,
      "commotion ": 6394,
      "ection": 6395,
      "plat": 6396,
      "plan ": 6397,
      "ime ": 6398,
      "imperi": 6399,
      "imilar ": 6400,
      "post": 6401,
      "poke ": 6402,
      "pots ": 6403,
      "tack": 6404,
      "take ": 6405,
      "sh ": 6406,
      "heaved ": 6407,
      "e . CHAPTER ": 6408,
      "have I ": 6409,
      "have the ": 6410,
      "exasper": 6411,
      "ck - ": 6412,
      "more": 6413,
      "preach": 6414,
      "prelimin": 6415,
      "s . I ": 6416,
      "so long ": 6417,
      "so soon ": 6418,
      "defin": 6419,
      "depart": 6420,
      "departed ": 6421,
      "you will": 6422,
      "him in ": 6423,
      "him ; and ": 6424,
      "? M": 6425,
      "? O": 6426,
      "? T": 6427,
      "? \" ": 6428,
      "a sight ": 6429,
      "a sudden ": 6430,
      "a sort ": 6431,
      "clas": 6432,
      "clam": 6433,
      "claim": 6434,
      "flex": 6435,
      "flour": 6436,
      "flood ": 6437,
      "master": 6438,
      "spic": 6439,
      "spite of ": 6440,
      "hard to ": 6441,
      "everlast": 6442,
      "green": 6443,
      "grew ": 6444,
      ".\" A": 6445,
      ".\" And ": 6446,
      " them , and ": 6447,
      "affair ": 6448,
      "moon": 6449,
      "motions ": 6450,
      ", that his ": 6451,
      "no one ": 6452,
      "no small ": 6453,
      "ope ": 6454,
      "ever - ": 6455,
      "lee ": 6456,
      "by those ": 6457,
      "probl": 6458,
      "ancy ": 6459,
      "ceful ": 6460,
      "more and more ": 6461,
      "ifi": 6462,
      "ake , ": 6463,
      "hearted ": 6464,
      "heart of ": 6465,
      "outward ": 6466,
      "when you ": 6467,
      "grinning ": 6468,
      "firm ": 6469,
      "firmly ": 6470,
      "matter , ": 6471,
      "glass ": 6472,
      "door , ": 6473,
      "!\" CHAPTER 1": 6474,
      "crown ": 6475,
      "crown": 6476,
      "crush": 6477,
      "coast , ": 6478,
      "capture ": 6479,
      "HAB": 6480,
      "ings ; ": 6481,
      "ERE ": 6482,
      "fire": 6483,
      ".\" \" And ": 6484,
      "sweep": 6485,
      " thrust ": 6486,
      "ly the ": 6487,
      "offered ": 6488,
      "down and ": 6489,
      "content ": 6490,
      "contact ": 6491,
      "ernatur": 6492,
      ", two ": 6493,
      "leap": 6494,
      "may , ": 6495,
      "?\" cried ": 6496,
      ". Then ": 6497,
      "hands , ": 6498,
      " . \" H": 6499,
      " . \" S": 6500,
      "age of ": 6501,
      "every way ": 6502,
      "- sp": 6503,
      "- ship ": 6504,
      "- sail ": 6505,
      "arded ": 6506,
      "design": 6507,
      "ing his own ": 6508,
      "case of ": 6509,
      "did he ": 6510,
      "darkn": 6511,
      ". So , ": 6512,
      "Captain Ahab , ": 6513,
      "kniv": 6514,
      ". Nevertheless , ": 6515,
      "helped ": 6516,
      "not that ": 6517,
      "ggy ": 6518,
      "about his ": 6519,
      "appli": 6520,
      "horn": 6521,
      "hors": 6522,
      "hog": 6523,
      "host": 6524,
      "drag": 6525,
      "drag ": 6526,
      "dragg": 6527,
      "need ": 6528,
      "neck": 6529,
      "neigh": 6530,
      "s to his ": 6531,
      "whales were ": 6532,
      "geon ": 6533,
      "gett": 6534,
      "ship , and ": 6535,
      "shipmates , ": 6536,
      "to this ": 6537,
      "it is a ": 6538,
      "ed by some ": 6539,
      ". For the ": 6540,
      "crack": 6541,
      "compet": 6542,
      "mind , ": 6543,
      "downward ": 6544,
      "attle ": 6545,
      "; so , ": 6546,
      "bowl ": 6547,
      "many a ": 6548,
      "distin": 6549,
      "distrust": 6550,
      "made to ": 6551,
      "a fine ": 6552,
      "braw": 6553,
      "brace ": 6554,
      "ies and ": 6555,
      "dense ": 6556,
      "off his ": 6557,
      "quiet ": 6558,
      ". It was a ": 6559,
      "joy": 6560,
      "calm , ": 6561,
      "calmly ": 6562,
      "beginn": 6563,
      "beginning ": 6564,
      "muffl": 6565,
      "understand ": 6566,
      " thou art ": 6567,
      "I have heard ": 6568,
      "God ! ": 6569,
      "subsequent ": 6570,
      "considered ": 6571,
      " turning ": 6572,
      "rolls ": 6573,
      "with his own ": 6574,
      "full - ": 6575,
      "stricken ": 6576,
      "near the ": 6577,
      "devil": 6578,
      "further": 6579,
      "length , ": 6580,
      "know what ": 6581,
      "writ": 6582,
      "meanwhile ": 6583,
      " their t": 6584,
      "valiant ": 6585,
      "valuable ": 6586,
      "found in the ": 6587,
      "midst ": 6588,
      "orders ": 6589,
      "advancing ": 6590,
      "dread ": 6591,
      "remend": 6592,
      "make the ": 6593,
      "profound": 6594,
      "professi": 6595,
      " truth ": 6596,
      "name , ": 6597,
      "fferable ": 6598,
      "Leviathan": 6599,
      "only the ": 6600,
      "only to ": 6601,
      ". When ": 6602,
      "follow ": 6603,
      "lessness ": 6604,
      "Gree": 6605,
      "portent": 6606,
      "error ": 6607,
      "errors ": 6608,
      "against the s": 6609,
      ". Let ": 6610,
      "sharp ": 6611,
      "cannot be ": 6612,
      "piled ": 6613,
      "Mr . Starbuck , ": 6614,
      "bitter": 6615,
      "as it were , ": 6616,
      "set down ": 6617,
      "happened ": 6618,
      "eventh ": 6619,
      "manned ": 6620,
      "odd ": 6621,
      "earnest": 6622,
      "glid": 6623,
      "glist": 6624,
      "glided ": 6625,
      "jaws ": 6626,
      "jaw , ": 6627,
      "nevertheless , ": 6628,
      "concerning the ": 6629,
      "certain s": 6630,
      "cene ": 6631,
      "lower jaw ": 6632,
      "other side ": 6633,
      "grim ": 6634,
      " sailed ": 6635,
      "On the ": 6636,
      "along with ": 6637,
      "seemed to be ": 6638,
      "want to ": 6639,
      " this time ": 6640,
      "accounted ": 6641,
      "remotest ": 6642,
      "gloom": 6643,
      "suspic": 6644,
      "wind , ": 6645,
      "ology ": 6646,
      "fortun": 6647,
      "direct ": 6648,
      "rushing ": 6649,
      "base ": 6650,
      "boys , ": 6651,
      "phantom ": 6652,
      "Christi": 6653,
      "since the ": 6654,
      "That ' s ": 6655,
      "years , ": 6656,
      " short ": 6657,
      "bucket ": 6658,
      "necessary ": 6659,
      "figure ": 6660,
      " . Mean": 6661,
      "lengthwise ": 6662,
      "gunwale ": 6663,
      "billow": 6664,
      "smoke ": 6665,
      "eyeing ": 6666,
      "eyeing the ": 6667,
      "e through the ": 6668,
      "Canall": 6669,
      "Commod": 6670,
      "keen": 6671,
      "luck ": 6672,
      "virtu": 6673,
      "prophet ": 6674,
      "remember": 6675,
      "____": 6676,
      "d ' ye see ": 6677,
      "pull , ": 6678,
      "identally ": 6679,
      "convey": 6680,
      "character ": 6681,
      "with one hand ": 6682,
      "field ": 6683,
      ", till the ": 6684,
      "number of ": 6685,
      "worthy ": 6686,
      "curios": 6687,
      "jeopar": 6688,
      "vigil": 6689,
      "captured ": 6690,
      "horror ": 6691,
      "horizontal ": 6692,
      "Gabriel ": 6693,
      "Polar ": 6694,
      "arrived ": 6695,
      "obliqu": 6696,
      "drowned ": 6697,
      "roubled ": 6698,
      "lonely ": 6699,
      "olemn": 6700,
      "opinion ": 6701,
      "desperate ": 6702,
      "eur ": 6703,
      "deemed ": 6704,
      "sixty ": 6705,
      "pair of ": 6706,
      "exclaimed ": 6707,
      "dinner ": 6708,
      "remarkable ": 6709,
      "world": 6710,
      "prospec": 6711,
      "monstrous ": 6712,
      "future ": 6713,
      "monomaniac ": 6714,
      "infallibly ": 6715,
      "excellent ": 6716,
      "involuntarily ": 6717,
      "Elijah ": 6718,
      "biscu": 6719,
      "ambergris ": 6720,
      "uspended ": 6721,
      "behind the ": 6722,
      "external ": 6723,
      "glimpse ": 6724,
      "Tahiti": 6725,
      "jumped ": 6726,
      "conduct ": 6727,
      "countenance ": 6728,
      "Japanese ": 6729,
      "FROM ": 6730,
      "swiftly ": 6731,
      "Jerobo": 6732,
      "King - P": 6733,
      "yesterday ": 6734,
      "atmosp": 6735,
      " THE ": 6736,
      "!-- the ": 6737,
      "!-- s": 6738,
      "( the ": 6739,
      ",--\" ": 6740,
      "- to": 6741,
      "3 The ": 6742,
      "5 The ": 6743,
      "6 The ": 6744,
      ": the ": 6745,
      "Asi": 6746,
      "Aye ": 6747,
      "BO": 6748,
      "By ": 6749,
      "Bar": 6750,
      "Bur": 6751,
      "Cab": 6752,
      "De": 6753,
      "Father ": 6754,
      "Im": 6755,
      "Jav": 6756,
      "LO": 6757,
      "Lor": 6758,
      "ME": 6759,
      "Man ": 6760,
      "Moun": 6761,
      "MAN": 6762,
      "Medit": 6763,
      "ND ": 6764,
      "NEE": 6765,
      "Ori": 6766,
      "Old ": 6767,
      "PO": 6768,
      "Pag": 6769,
      "Plat": 6770,
      "QU": 6771,
      "TI": 6772,
      "Typh": 6773,
      "Vin": 6774,
      "Vish": 6775,
      "Y , ": 6776,
      "aun": 6777,
      "ath ": 6778,
      "a time ": 6779,
      "ahead , ": 6780,
      "bos": 6781,
      "bag": 6782,
      "big": 6783,
      "bag ": 6784,
      "chip": 6785,
      "city ": 6786,
      "cav": 6787,
      "cook": 6788,
      "dy": 6789,
      "det": 6790,
      "dain": 6791,
      "dust ": 6792,
      "doll": 6793,
      "dear ": 6794,
      "dling ": 6795,
      "domin": 6796,
      "dulous ": 6797,
      "eering ": 6798,
      "fit": 6799,
      "few": 6800,
      "fate ": 6801,
      "gate ": 6802,
      "gently ": 6803,
      "hou": 6804,
      "ies , ": 6805,
      "jam": 6806,
      "king , ": 6807,
      "key": 6808,
      "lun": 6809,
      "led , ": 6810,
      "lose ": 6811,
      "le , and ": 6812,
      "mood ": 6813,
      "mult": 6814,
      "mead": 6815,
      "non": 6816,
      "nay ": 6817,
      "ney": 6818,
      "napp": 6819,
      "nail ": 6820,
      "oe ": 6821,
      "ol ": 6822,
      "olid ": 6823,
      "pper": 6824,
      "pum": 6825,
      "pour": 6826,
      "post ": 6827,
      "past": 6828,
      "pine ": 6829,
      "rus": 6830,
      "rub": 6831,
      "rant": 6832,
      "rowing ": 6833,
      "s this ": 6834,
      "sitting ": 6835,
      "scientific ": 6836,
      "tin": 6837,
      "till ": 6838,
      "ug ": 6839,
      "veness ": 6840,
      "wing": 6841,
      "wand": 6842,
      "wall ": 6843,
      "wall , ": 6844,
      "wave ": 6845,
      "e in ": 6846,
      " took ": 6847,
      "s ' ": 6848,
      " thre": 6849,
      " thirty ": 6850,
      "in , and ": 6851,
      "inous ": 6852,
      "in them ": 6853,
      "insur": 6854,
      "in such a ": 6855,
      "inhabit": 6856,
      ", I ": 6857,
      "er the ": 6858,
      "ano": 6859,
      "an t": 6860,
      "anni": 6861,
      "another s": 6862,
      "anatom": 6863,
      "y ! ": 6864,
      "ense ": 6865,
      "eness , ": 6866,
      "ing two ": 6867,
      "ale ": 6868,
      "alt ": 6869,
      "alike ": 6870,
      "ors of the ": 6871,
      "arch": 6872,
      "artic": 6873,
      "around": 6874,
      "of two ": 6875,
      "of thy ": 6876,
      "thing": 6877,
      "them ": 6878,
      "thick": 6879,
      " she ": 6880,
      " sur": 6881,
      " said ": 6882,
      "requi": 6883,
      "ing round ": 6884,
      "at all , ": 6885,
      "atel": 6886,
      "ating the ": 6887,
      "stay ": 6888,
      "stout ": 6889,
      "stif": 6890,
      "step": 6891,
      "stagg": 6892,
      "stuff ": 6893,
      "a moment ": 6894,
      "oward ": 6895,
      "er or ": 6896,
      "omb": 6897,
      "of ye ": 6898,
      "of being ": 6899,
      "- N": 6900,
      "- Hea": 6901,
      "; yet , ": 6902,
      "esc": 6903,
      "lips ": 6904,
      "as in ": 6905,
      "as any ": 6906,
      "is so ": 6907,
      "\" I ": 6908,
      "e , when ": 6909,
      "forg": 6910,
      "forge ": 6911,
      "forgott": 6912,
      " that a ": 6913,
      " that had ": 6914,
      "on - ": 6915,
      "on its ": 6916,
      "on her ": 6917,
      "eak": 6918,
      "eable ": 6919,
      "its , ": 6920,
      "is the s": 6921,
      "ure . ": 6922,
      "unct": 6923,
      "unspeak": 6924,
      "eded in ": 6925,
      "ed through ": 6926,
      "ed towards the ": 6927,
      "with t": 6928,
      "with the same ": 6929,
      "behel": 6930,
      "beef": 6931,
      "of the Sperm Whale ": 6932,
      "of the Pequod ' s ": 6933,
      "s , which ": 6934,
      "events ": 6935,
      "ands ": 6936,
      "butter ": 6937,
      " . \"' ": 6938,
      "I found ": 6939,
      "rage ": 6940,
      "rade ": 6941,
      "seen the ": 6942,
      "' s head ": 6943,
      "tiff": 6944,
      "ook , ": 6945,
      "was only ": 6946,
      "abund": 6947,
      "dim ": 6948,
      "dimin": 6949,
      "dilig": 6950,
      "dimly ": 6951,
      "age . ": 6952,
      "ow ' s ": 6953,
      "quit": 6954,
      "quest ": 6955,
      "quaint": 6956,
      "e thing ": 6957,
      "e thee ": 6958,
      "rod": 6959,
      "you see ": 6960,
      "whisk": 6961,
      "all my ": 6962,
      "using ": 6963,
      "usive ": 6964,
      "usually ": 6965,
      "ides ": 6966,
      "idol": 6967,
      "ident ": 6968,
      "idol ": 6969,
      "frantic ": 6970,
      "intently ": 6971,
      "one to ": 6972,
      "! C": 6973,
      "! What ": 6974,
      "! This ": 6975,
      "with all the ": 6976,
      "eez": 6977,
      "in the air ": 6978,
      "in the present ": 6979,
      "in the middle ": 6980,
      "acle , ": 6981,
      "activ": 6982,
      "concentr": 6983,
      "connex": 6984,
      "not very ": 6985,
      "vering ": 6986,
      "p and ": 6987,
      "p of ": 6988,
      "perform": 6989,
      "plag": 6990,
      "ice": 6991,
      "ical": 6992,
      "ic s": 6993,
      "but un": 6994,
      "imper": 6995,
      "polit": 6996,
      "blood": 6997,
      "shrie": 6998,
      "um , ": 6999,
      "ummer ": 7000,
      "heath": 7001,
      "e . F": 7002,
      "e . For ": 7003,
      ", thy ": 7004,
      "have ye ": 7005,
      "expan": 7006,
      " stre": 7007,
      "th of ": 7008,
      "had been": 7009,
      "eted ": 7010,
      "pread": 7011,
      "preci": 7012,
      "pregn": 7013,
      "selves , ": 7014,
      "s . In ": 7015,
      "ays , ": 7016,
      "; and he ": 7017,
      "our s": 7018,
      "deal ": 7019,
      "are not ": 7020,
      "are you ": 7021,
      "old man , ": 7022,
      "ed , he ": 7023,
      "clapp": 7024,
      "flan": 7025,
      "fled ": 7026,
      "flee": 7027,
      "flew": 7028,
      "flung ": 7029,
      "worth ": 7030,
      "work , ": 7031,
      "works , ": 7032,
      "now - white ": 7033,
      "me ; ": 7034,
      "terri": 7035,
      "from one ": 7036,
      "from my ": 7037,
      "at the bottom ": 7038,
      "like a t": 7039,
      "ongu": 7040,
      "-- t": 7041,
      "modi": 7042,
      "elling ": 7043,
      "thern": 7044,
      "wildly ": 7045,
      "by their ": 7046,
      "ousness , ": 7047,
      "what ' s ": 7048,
      "what seemed ": 7049,
      "endure ": 7050,
      "now , and ": 7051,
      "propor": 7052,
      "ance , and ": 7053,
      "more of ": 7054,
      "would fain ": 7055,
      "hearse ": 7056,
      "seemed the ": 7057,
      "grat": 7058,
      "grant ": 7059,
      "growing ": 7060,
      "ance of ": 7061,
      "hips , ": 7062,
      "man , and ": 7063,
      "illed ": 7064,
      "iller ": 7065,
      "fire - ": 7066,
      "boat , and ": 7067,
      "gly": 7068,
      "glar": 7069,
      "glad ": 7070,
      "doing ": 7071,
      "head of the ": 7072,
      "carn": 7073,
      " shot ": 7074,
      "if we ": 7075,
      "!\" The ": 7076,
      "!\" But ": 7077,
      "some time ": 7078,
      "pressed ": 7079,
      "avo": 7080,
      "strong ": 7081,
      "must needs ": 7082,
      "corrup": 7083,
      "dism": 7084,
      "fight": 7085,
      "has a ": 7086,
      "swam ": 7087,
      " throw ": 7088,
      "ence of the ": 7089,
      "here ' s ": 7090,
      ". All": 7091,
      ". After": 7092,
      "lodg": 7093,
      "offici": 7094,
      "lift ": 7095,
      "content": 7096,
      "perm whale ' s ": 7097,
      "heredit": 7098,
      ", took ": 7099,
      "bread ": 7100,
      "leaped ": 7101,
      ". Thus ": 7102,
      "pierc": 7103,
      "made the ": 7104,
      "times , ": 7105,
      "case , ": 7106,
      "dead , ": 7107,
      "death , ": 7108,
      "migh": 7109,
      "interior ": 7110,
      "weigh": 7111,
      "merry ": 7112,
      "crews ": 7113,
      "below , ": 7114,
      "money ": 7115,
      "Ahab stood ": 7116,
      "oulder ": 7117,
      "white - ": 7118,
      "dragged ": 7119,
      "much more ": 7120,
      "good - ": 7121,
      "It ' s ": 7122,
      "geous ": 7123,
      "gether , ": 7124,
      "; though , ": 7125,
      "I saw": 7126,
      "almost every ": 7127,
      "compas": 7128,
      "compass ": 7129,
      "minc": 7130,
      "urely ": 7131,
      "ures of ": 7132,
      "away from the ": 7133,
      ", they have ": 7134,
      "drom": 7135,
      "broke ": 7136,
      "seren": 7137,
      "service ": 7138,
      "a fell": 7139,
      "higher ": 7140,
      "even hundred ": 7141,
      "Stubb and ": 7142,
      "hunter ": 7143,
      " three or four ": 7144,
      "quid ": 7145,
      "fact , ": 7146,
      "harpooneer , ": 7147,
      "harpooneers , ": 7148,
      "easily ": 7149,
      "milli": 7150,
      "mildly ": 7151,
      "milky ": 7152,
      "ranspar": 7153,
      "health": 7154,
      " such a s": 7155,
      "D ' ye ": 7156,
      "sailor ": 7157,
      "supper ": 7158,
      "freely ": 7159,
      "freighted ": 7160,
      "achel": 7161,
      "retir": 7162,
      "retched ": 7163,
      "lightn": 7164,
      "ken of ": 7165,
      "let him ": 7166,
      "striking ": 7167,
      "nearest ": 7168,
      ". He was ": 7169,
      "runn": 7170,
      "empti": 7171,
      "dece": 7172,
      "anybody ": 7173,
      ", there is ": 7174,
      "Ender": 7175,
      "oars ": 7176,
      "oarsman ": 7177,
      "alongsid": 7178,
      "strained ": 7179,
      "direful ": 7180,
      "under - ": 7181,
      "him . But ": 7182,
      "window": 7183,
      "pitched ": 7184,
      "mention ": 7185,
      "makes the ": 7186,
      "I think": 7187,
      "orment": 7188,
      "excep": 7189,
      "speaking ": 7190,
      "fellow": 7191,
      "fellows ": 7192,
      "veloc": 7193,
      "' s the matter ": 7194,
      "magne": 7195,
      "as if it were ": 7196,
      "imply ": 7197,
      "family ": 7198,
      "oil - ": 7199,
      ". Look ": 7200,
      "White Whale ' s ": 7201,
      "ed to the s": 7202,
      "inscru": 7203,
      "insult ": 7204,
      "hundred": 7205,
      " . So ": 7206,
      "baleen ": 7207,
      "honoura": 7208,
      " . Now ": 7209,
      "IST": 7210,
      "ity , and ": 7211,
      "commander ": 7212,
      "AL ": 7213,
      "rouble ": 7214,
      "circumstances ": 7215,
      "large , ": 7216,
      "WHALE": 7217,
      "hope to ": 7218,
      "lady ": 7219,
      "malic": 7220,
      "rigging , ": 7221,
      "leviathan": 7222,
      "greater ": 7223,
      " take it ": 7224,
      "p - feed": 7225,
      "removed ": 7226,
      "death - ": 7227,
      "member ": 7228,
      "reach ": 7229,
      "boat ' s crew ": 7230,
      "direction ": 7231,
      "direction": 7232,
      "rowsers ": 7233,
      " thought , ": 7234,
      "birds ": 7235,
      "kind of ": 7236,
      "an inch ": 7237,
      " . With ": 7238,
      "digest": 7239,
      "room , ": 7240,
      "burning ": 7241,
      "waist ": 7242,
      "able , and ": 7243,
      " stands ": 7244,
      "Look ye , ": 7245,
      "wrecked ": 7246,
      "shall be ": 7247,
      "violently ": 7248,
      "involved ": 7249,
      "simil": 7250,
      "uggl": 7251,
      "ever since ": 7252,
      "gale , ": 7253,
      "laun": 7254,
      "potent ": 7255,
      "lovely ": 7256,
      "exclam": 7257,
      "Heaven ": 7258,
      "TAV": 7259,
      "author": 7260,
      "ignorance ": 7261,
      "WHALE ; ": 7262,
      "I told ": 7263,
      "I should like to ": 7264,
      "as well as ": 7265,
      "according to ": 7266,
      "grasp": 7267,
      "French": 7268,
      "hollow": 7269,
      "virtue ": 7270,
      "privil": 7271,
      "yield ": 7272,
      ", thought I , ": 7273,
      "ponderous ": 7274,
      "Sebast": 7275,
      "clouds ": 7276,
      " there is no ": 7277,
      "instead ": 7278,
      "besides ": 7279,
      "impressions ": 7280,
      "ship ' s company ": 7281,
      "lamp - feed": 7282,
      "shadow ": 7283,
      "stretched ": 7284,
      "revolving ": 7285,
      "ambour": 7286,
      "superst": 7287,
      "St . Ge": 7288,
      "vague ": 7289,
      "mysterious ": 7290,
      "life - buo": 7291,
      "elevated ": 7292,
      "secure ": 7293,
      "detached ": 7294,
      "foremost ": 7295,
      "intelligent ": 7296,
      ".* * ": 7297,
      "binnacle ": 7298,
      "comfortable ": 7299,
      " struck ": 7300,
      "experienced ": 7301,
      "stroke ": 7302,
      "eastward ": 7303,
      "phrenolog": 7304,
      "murmured ": 7305,
      "Loose - Fish ": 7306,
      "recognis": 7307,
      "Dough - Boy ": 7308,
      "Emper": 7309,
      "OCTAV": 7310,
      "batros": 7311,
      "apprehensi": 7312,
      "vivid ": 7313,
      "vigorous ": 7314,
      "on board the ": 7315,
      "FOLI": 7316,
      "courage ": 7317,
      "vertebra": 7318,
      "simultaneously ": 7319,
      "sufficiently ": 7320,
      "pyrami": 7321,
      "Lima ": 7322,
      "Scores": 7323,
      "owards the ": 7324,
      "wigw": 7325,
      "endeavor": 7326,
      "domestic ": 7327,
      "little , ": 7328,
      "neighbor": 7329,
      "Mediter": 7330,
      "NEEZ": 7331,
      "Viney": 7332,
      "!\" s": 7333,
      "( s": 7334,
      "2 The ": 7335,
      "5 ": 7336,
      "7 The ": 7337,
      "9 The ": 7338,
      "?' s": 7339,
      "AM": 7340,
      "Avast ": 7341,
      "AHAB": 7342,
      "BL": 7343,
      "Bul": 7344,
      "Bible ": 7345,
      "Cook ": 7346,
      "DU": 7347,
      "ET ": 7348,
      "Gay ": 7349,
      "Hy": 7350,
      "Her": 7351,
      "IG": 7352,
      "It": 7353,
      "I st": 7354,
      "Jop": 7355,
      "KING ": 7356,
      "Line ": 7357,
      "Mac": 7358,
      "MOR": 7359,
      "Not ": 7360,
      "Peter ": 7361,
      "SC": 7362,
      "S . \" ": 7363,
      "SHI": 7364,
      "TW": 7365,
      "UL": 7366,
      "Ye ": 7367,
      "YOU": 7368,
      "Zeal": 7369,
      "ain the ": 7370,
      "bb": 7371,
      "bad": 7372,
      "bare ": 7373,
      "bble ": 7374,
      "beach ": 7375,
      "bade ": 7376,
      "bit of ": 7377,
      "con ": 7378,
      "cit": 7379,
      "cely ": 7380,
      "ccord": 7381,
      "dus": 7382,
      "dge ": 7383,
      "fal": 7384,
      "fea": 7385,
      "fare ": 7386,
      "fitted ": 7387,
      "ges ": 7388,
      "ginger ": 7389,
      "hing": 7390,
      "host ": 7391,
      "heel": 7392,
      "hull": 7393,
      "ha ! ": 7394,
      "ker": 7395,
      "ks . ": 7396,
      "kick ": 7397,
      "keen ": 7398,
      "lo ": 7399,
      "lear": 7400,
      "lone ": 7401,
      "lack": 7402,
      "lance , ": 7403,
      "laz": 7404,
      "lave ": 7405,
      "mit ": 7406,
      "mee": 7407,
      "mass": 7408,
      "mumbl": 7409,
      "nut": 7410,
      "next": 7411,
      "nap ": 7412,
      "oli": 7413,
      "opl": 7414,
      "olitary ": 7415,
      "pare ": 7416,
      "pure ": 7417,
      "prud": 7418,
      "rul": 7419,
      "ry , ": 7420,
      "rough ": 7421,
      "st , ": 7422,
      "sound": 7423,
      "sword ": 7424,
      "squar": 7425,
      "soft ": 7426,
      "slid ": 7427,
      "seventy ": 7428,
      "tre": 7429,
      "ting the ": 7430,
      "ty , ": 7431,
      "tossed ": 7432,
      "ught": 7433,
      "vad": 7434,
      "wing ": 7435,
      "ware ": 7436,
      "wast": 7437,
      "went to ": 7438,
      "war - ": 7439,
      "woven ": 7440,
      "yr": 7441,
      "ying the ": 7442,
      "e , the ": 7443,
      "e ; and ": 7444,
      "s and t": 7445,
      " thir": 7446,
      " thri": 7447,
      " thing , ": 7448,
      " this the ": 7449,
      " thinks ": 7450,
      "inch ": 7451,
      "ine . ": 7452,
      "inated ": 7453,
      ", in ": 7454,
      "erec": 7455,
      "ermost ": 7456,
      "ers to ": 7457,
      "ancho": 7458,
      "y ; ": 7459,
      "en to the ": 7460,
      "ensu": 7461,
      "ent , and ": 7462,
      "energ": 7463,
      "ing the ship ": 7464,
      "ing thing ": 7465,
      "ing to the s": 7466,
      "alth ": 7467,
      "alarm": 7468,
      "orm ": 7469,
      "ars ": 7470,
      "arched ": 7471,
      "of them , ": 7472,
      "than ": 7473,
      "these ": 7474,
      "thunder": 7475,
      "ed like ": 7476,
      "o - ": 7477,
      ". While ": 7478,
      "hit ": 7479,
      "hiero": 7480,
      " , in ": 7481,
      " , which ": 7482,
      " sc": 7483,
      " sor": 7484,
      " say": 7485,
      "and an": 7486,
      "resid": 7487,
      "reef": 7488,
      "recover": 7489,
      "receive ": 7490,
      "ing an ": 7491,
      "at him ": 7492,
      "at such ": 7493,
      "ator": 7494,
      "ater ": 7495,
      "ates , ": 7496,
      "ated to ": 7497,
      "sty ": 7498,
      "stain": 7499,
      "steel ": 7500,
      "a long ": 7501,
      "a whole ": 7502,
      "omen": 7503,
      "wher": 7504,
      "whel": 7505,
      "of all": 7506,
      "of us ": 7507,
      "- head ": 7508,
      "- looking ": 7509,
      "chat ": 7510,
      "chron": 7511,
      "in other ": 7512,
      "in vain ": 7513,
      "; with ": 7514,
      "; a s": 7515,
      "; what ": 7516,
      "; it is ": 7517,
      "; it was ": 7518,
      "; it ' s ": 7519,
      "haz": 7520,
      "hail ": 7521,
      "ligh": 7522,
      "livel": 7523,
      "wist": 7524,
      "as in the ": 7525,
      "as he s": 7526,
      "as I was ": 7527,
      "is as ": 7528,
      "is of the ": 7529,
      "is , that ": 7530,
      "\" ( ": 7531,
      "e , for ": 7532,
      "fore - ": 7533,
      "his whole ": 7534,
      "he st": 7535,
      "he now ": 7536,
      "he seemed ": 7537,
      "it with ": 7538,
      "it may be ": 7539,
      "it would be ": 7540,
      "' W": 7541,
      "' ve ": 7542,
      "on of ": 7543,
      "on it ": 7544,
      "on an ": 7545,
      "irresist": 7546,
      "eady ": 7547,
      "ity to ": 7548,
      "isl": 7549,
      "ily": 7550,
      "ilver ": 7551,
      "emer": 7552,
      "emon": 7553,
      "unusual ": 7554,
      "ed that this ": 7555,
      "within a ": 7556,
      "without the ": 7557,
      "beating ": 7558,
      "of the P": 7559,
      "s , were ": 7560,
      "s , when ": 7561,
      "and they ": 7562,
      "bull ": 7563,
      "butter": 7564,
      "buffal": 7565,
      "rich": 7566,
      "rib ": 7567,
      " . In": 7568,
      " . But the ": 7569,
      "nobl": 7570,
      "noise ": 7571,
      "I .": 7572,
      "I ever ": 7573,
      "I can": 7574,
      "I may ": 7575,
      "I never ": 7576,
      "I cannot ": 7577,
      "I could not ": 7578,
      "I mean ": 7579,
      "rain ": 7580,
      "radi": 7581,
      "seas": 7582,
      "ooth ": 7583,
      "ooked ": 7584,
      "ament ": 7585,
      "whaling , ": 7586,
      "was still ": 7587,
      "abb": 7588,
      "him to the ": 7589,
      "him . \" ": 7590,
      "dive ": 7591,
      "dict": 7592,
      "-- he ": 7593,
      "-- not ": 7594,
      "qual": 7595,
      "quall ": 7596,
      "e thus ": 7597,
      " to them ": 7598,
      " too , ": 7599,
      " toil ": 7600,
      "rods ": 7601,
      "rocks ": 7602,
      " they t": 7603,
      "you t": 7604,
      "you to ": 7605,
      "bodi": 7606,
      "all things ": 7607,
      "allusion": 7608,
      "all its ": 7609,
      "all right ": 7610,
      "all four ": 7611,
      "uspec": 7612,
      "usage ": 7613,
      "ide": 7614,
      "ide , and ": 7615,
      "idn ' t ": 7616,
      "ounce ": 7617,
      "ound , and ": 7618,
      "intend": 7619,
      "intric": 7620,
      "apt": 7621,
      "eeth": 7622,
      "eeze ": 7623,
      "enter ": 7624,
      "entang": 7625,
      "from these ": 7626,
      "in the air": 7627,
      "in the fishery ": 7628,
      "acity ": 7629,
      "accursed ": 7630,
      "acquaint": 7631,
      "concer": 7632,
      "conceiv": 7633,
      "conspic": 7634,
      "be sur": 7635,
      "not yet ": 7636,
      "not a little ": 7637,
      "come , ": 7638,
      "comes the ": 7639,
      "perched ": 7640,
      "perceive ": 7641,
      "pless ": 7642,
      "ic , ": 7643,
      "for all ": 7644,
      "for my ": 7645,
      "but a s": 7646,
      "but only ": 7647,
      "immem": 7648,
      "by what ": 7649,
      "poise ": 7650,
      "out of his ": 7651,
      ", the t": 7652,
      ", the great ": 7653,
      "blast ": 7654,
      "blood , ": 7655,
      "shea": 7656,
      "should": 7657,
      "shudder": 7658,
      "umph": 7659,
      "e . B": 7660,
      "e . T": 7661,
      "e . I ": 7662,
      "exper": 7663,
      "exec": 7664,
      "expl": 7665,
      "explain": 7666,
      "exact ": 7667,
      " straight ": 7668,
      "ck of ": 7669,
      "th of the ": 7670,
      "had he ": 7671,
      "etric": 7672,
      "whale was ": 7673,
      "sely ": 7674,
      "s . A ": 7675,
      "s . For ": 7676,
      "ayh": 7677,
      "destruc": 7678,
      "are all ": 7679,
      "you cannot ": 7680,
      "him a ": 7681,
      "him in the ": 7682,
      "? No ": 7683,
      "old Ahab ": 7684,
      "ed , but ": 7685,
      "ed , and the ": 7686,
      "cling": 7687,
      "clean": 7688,
      "fly": 7689,
      "flag": 7690,
      "flank ": 7691,
      "await": 7692,
      "sian ": 7693,
      "word": 7694,
      "wors": 7695,
      "now ? ": 7696,
      "my first ": 7697,
      "evertheless ": 7698,
      "ted by the ": 7699,
      "terr": 7700,
      "tering ": 7701,
      "at the time ": 7702,
      "aily ": 7703,
      "man ; ": 7704,
      "move ": 7705,
      "moking ": 7706,
      ", that is ": 7707,
      ", that is , ": 7708,
      "no doubt ": 7709,
      "lean ": 7710,
      "letter ": 7711,
      "by to ": 7712,
      "ally , ": 7713,
      "proved ": 7714,
      "progres": 7715,
      "warn": 7716,
      "ife ": 7717,
      "ifying ": 7718,
      "akes ": 7719,
      "ell - ": 7720,
      "estab": 7721,
      "grass ": 7722,
      "ground , ": 7723,
      "prow": 7724,
      "print": 7725,
      "illum": 7726,
      "ove , ": 7727,
      "Whales ": 7728,
      "Ahab was ": 7729,
      "very s": 7730,
      "glas": 7731,
      "glasses ": 7732,
      "of his head ": 7733,
      "doom ": 7734,
      "doct": 7735,
      "and though ": 7736,
      "and then s": 7737,
      "!\" S": 7738,
      "way -- ": 7739,
      "induc": 7740,
      "of so ": 7741,
      "of sail": 7742,
      "eye , ": 7743,
      "before , ": 7744,
      "marsh": 7745,
      "marvel": 7746,
      "cryst": 7747,
      "crooked ": 7748,
      "self - ": 7749,
      "coast": 7750,
      "coat , ": 7751,
      "coiled ": 7752,
      "ackles ": 7753,
      "capable ": 7754,
      " these two ": 7755,
      "solitary ": 7756,
      "crip": 7757,
      "essly ": 7758,
      ". \" In ": 7759,
      "ness of the ": 7760,
      "ness of his ": 7761,
      "mean , ": 7762,
      "faint": 7763,
      ".\" \" But ": 7764,
      ".\" \" Aye , ": 7765,
      " those who ": 7766,
      "cann": 7767,
      "canal ": 7768,
      "lost": 7769,
      "do , ": 7770,
      "where I ": 7771,
      "long and ": 7772,
      "equal": 7773,
      "equally ": 7774,
      "her s": 7775,
      "lead": 7776,
      "leap ": 7777,
      "obs": 7778,
      "obtain": 7779,
      "obvious ": 7780,
      "which they ": 7781,
      "into the air": 7782,
      "and seventy ": 7783,
      "picked ": 7784,
      "every day ": 7785,
      "desol": 7786,
      "descend ": 7787,
      "port , ": 7788,
      "porpois": 7789,
      "times": 7790,
      "cases , ": 7791,
      "did you ": 7792,
      "darting ": 7793,
      ". So": 7794,
      "could I ": 7795,
      "dead": 7796,
      "before you ": 7797,
      "before him ": 7798,
      "mid - ": 7799,
      "sufferable ": 7800,
      "ress ": 7801,
      "rest , ": 7802,
      "rescu": 7803,
      "slain ": 7804,
      "how the ": 7805,
      "like , ": 7806,
      "like this ": 7807,
      ". Nor , ": 7808,
      "ful of ": 7809,
      "horses ": 7810,
      "might have been ": 7811,
      "shipmates ": 7812,
      "; that": 7813,
      "; though": 7814,
      "; then s": 7815,
      "to that ": 7816,
      "it is , that ": 7817,
      ". First ": 7818,
      ". From": 7819,
      "I suppos": 7820,
      "it was only ": 7821,
      "down , and ": 7822,
      "ures of the ": 7823,
      "bowspr": 7824,
      ", they are ": 7825,
      "drink": 7826,
      "brother ": 7827,
      "cting ": 7828,
      "a foo": 7829,
      "and tak": 7830,
      "and tell ": 7831,
      "see him ": 7832,
      "well be ": 7833,
      "paul": 7834,
      "even in the ": 7835,
      "izing ": 7836,
      "hung": 7837,
      " three days ": 7838,
      "hump ": 7839,
      "quick , ": 7840,
      "joint": 7841,
      "smells ": 7842,
      "but t": 7843,
      "liness ": 7844,
      "ropes ": 7845,
      "gazed ": 7846,
      "back , and ": 7847,
      "back to the ": 7848,
      "began": 7849,
      "begins ": 7850,
      "in this matter ": 7851,
      "lands ": 7852,
      "landed ": 7853,
      "oftly ": 7854,
      "whalemen , ": 7855,
      "afternoon ": 7856,
      "puzz": 7857,
      "sails ": 7858,
      "he had not ": 7859,
      "among them ": 7860,
      "will sometimes ": 7861,
      "indefin": 7862,
      "heavens ": 7863,
      "miserable ": 7864,
      "doublo": 7865,
      ". Oh ": 7866,
      ". Oh ! ": 7867,
      " take that ": 7868,
      "ation , and ": 7869,
      "just as ": 7870,
      "ignific": 7871,
      "surmis": 7872,
      "grap": 7873,
      "Jonah , ": 7874,
      "along , ": 7875,
      "delight ": 7876,
      "deliri": 7877,
      "him . And ": 7878,
      "White Whale , ": 7879,
      "considering the ": 7880,
      "considerably ": 7881,
      "ice - ": 7882,
      "plank ": 7883,
      "men to ": 7884,
      "ment , ": 7885,
      "get a ": 7886,
      "vision ": 7887,
      "whatever": 7888,
      "chased ": 7889,
      "guil": 7890,
      "latitude ": 7891,
      "in subst": 7892,
      "e to him ": 7893,
      " truly ": 7894,
      "mason": 7895,
      "charge ": 7896,
      " to tell ": 7897,
      "colum": 7898,
      "driv": 7899,
      " than that ": 7900,
      ". Where ": 7901,
      "ations of the ": 7902,
      "master , ": 7903,
      "azz": 7904,
      "imput": 7905,
      "dropping ": 7906,
      "steering ": 7907,
      "Stubb , \" ": 7908,
      "ed to that ": 7909,
      "ENCH": 7910,
      "powder ": 7911,
      "Mr . Stubb ": 7912,
      "beaut": 7913,
      "beauti": 7914,
      "deep , ": 7915,
      " . No ": 7916,
      "appearance ": 7917,
      "ISE ": 7918,
      " somewhat ": 7919,
      "manner of ": 7920,
      "address": 7921,
      "cauti": 7922,
      "gliding ": 7923,
      "mountain ": 7924,
      "mate ' s ": 7925,
      "; and then , ": 7926,
      "viciss": 7927,
      "observed ": 7928,
      "esides ": 7929,
      "close to ": 7930,
      "monsters ": 7931,
      "needle ": 7932,
      "needles ": 7933,
      "largely ": 7934,
      "America ": 7935,
      " . It was ": 7936,
      "length of the ": 7937,
      "medit": 7938,
      "presented ": 7939,
      "breaking ": 7940,
      "breakfast ": 7941,
      "pray ": 7942,
      "mariner ": 7943,
      "fastened ": 7944,
      "venerable ": 7945,
      "silently ": 7946,
      "welded ": 7947,
      "wouldn ' t ": 7948,
      "allied ": 7949,
      "change ": 7950,
      "divided ": 7951,
      "measur": 7952,
      "- stri": 7953,
      "Arch": 7954,
      "keeping ": 7955,
      "remote ": 7956,
      "; but that ": 7957,
      "wiftly ": 7958,
      "s . They ": 7959,
      "gloom ": 7960,
      "leaned ": 7961,
      "rushed ": 7962,
      "! How ": 7963,
      "? Why ": 7964,
      "bask": 7965,
      "books ": 7966,
      "lurked ": 7967,
      "forecast": 7968,
      "' ll be ": 7969,
      "spirit": 7970,
      "reasonable ": 7971,
      "block": 7972,
      "so that it ": 7973,
      "seems a ": 7974,
      "mistake ": 7975,
      "substanti": 7976,
      "hammock , ": 7977,
      "murderous ": 7978,
      "similar ": 7979,
      "eagerly ": 7980,
      "descrip": 7981,
      "whaleman ' s ": 7982,
      "leeping ": 7983,
      "aneous ": 7984,
      "over the side ": 7985,
      "crossing the ": 7986,
      "sleeping ": 7987,
      "Nantucketer ": 7988,
      " these things ": 7989,
      "on board , ": 7990,
      "probab": 7991,
      "away the ": 7992,
      "ignorant ": 7993,
      "e . Nor ": 7994,
      "e . Now , ": 7995,
      "whale - ship": 7996,
      "possession ": 7997,
      "antiqu": 7998,
      "apparently ": 7999,
      "blubber - ": 8000,
      "forced to ": 8001,
      "properly ": 8002,
      "first time ": 8003,
      "scarce ": 8004,
      "flesh": 8005,
      "up and down ": 8006,
      "resolved to ": 8007,
      "friends , ": 8008,
      "remember ": 8009,
      " . When ": 8010,
      "a ship ' s ": 8011,
      "contrast ": 8012,
      "bidding ": 8013,
      "dumb ": 8014,
      "popularly ": 8015,
      "helmsman ": 8016,
      "character": 8017,
      "' st thou ": 8018,
      "TO THE ": 8019,
      "feet , ": 8020,
      "hypo": 8021,
      "operation ": 8022,
      "combined ": 8023,
      "loaded ": 8024,
      "confidential ": 8025,
      "lungs ": 8026,
      "saw the ": 8027,
      "vital ": 8028,
      "women ": 8029,
      "? Do ": 8030,
      "pieces ": 8031,
      "civiliz": 8032,
      "kington ": 8033,
      "melancho": 8034,
      "obey ": 8035,
      "vicinity ": 8036,
      "eh ? ": 8037,
      "mallest ": 8038,
      "top of the ": 8039,
      "look - out": 8040,
      "Ishmael ": 8041,
      "Don Sebast": 8042,
      "SPER": 8043,
      "methodic": 8044,
      "Heidel": 8045,
      "Island": 8046,
      "months ": 8047,
      "attooed ": 8048,
      "naturalists ": 8049,
      "Coffin ": 8050,
      "fetch": 8051,
      "ggling ": 8052,
      "wharf": 8053,
      "conveni": 8054,
      "convenient ": 8055,
      "sooner ": 8056,
      "Cape Horn": 8057,
      "Cape Horn ": 8058,
      "ECIM": 8059,
      "Monsi": 8060,
      "mechanically ": 8061,
      "gradually ": 8062,
      "judgment ": 8063,
      "intolerable ": 8064,
      "measureless ": 8065,
      "nervous ": 8066,
      "quantity of ": 8067,
      "blessed ": 8068,
      "astonish": 8069,
      "( SNEEZ": 8070,
      "gether , and ": 8071,
      "straightway ": 8072,
      "prairie ": 8073,
      "intensity ": 8074,
      "Manxman ": 8075,
      "Duke ": 8076,
      "Samuel ": 8077,
      "devilish ": 8078,
      "ficial ": 8079,
      "archangel ": 8080,
      "bump": 8081,
      "comrades ": 8082,
      "by far the most ": 8083,
      "knowledge ": 8084,
      ". Becaus": 8085,
      "penetr": 8086,
      "echn": 8087,
      "jack - knif": 8088,
      "infinite ": 8089,
      "no telling ": 8090,
      "independent ": 8091,
      "success": 8092,
      "umultuous ": 8093,
      "ODECIM": 8094,
      "Solom": 8095,
      "imperial ": 8096,
      "distinctly ": 8097,
      "remendous ": 8098,
      "Commodore ": 8099,
      "obliquely ": 8100,
      "Vishno": 8101,
      "house": 8102,
      "pumps ": 8103,
      "glyphi": 8104,
      "dromed": 8105,
      "even hundred and seventy ": 8106,
      "malicious ": 8107,
      "Mediterranean ": 8108,
      "hieroglyphi": 8109,
      "vicissitud": 8110,
      "Heidelburgh": 8111,
      "( SNEEZES ": 8112,
      "even hundred and seventy - s": 8113,
      "), and ": 8114,
      ",--": 8115,
      ",-- the ": 8116,
      "0 , 000 ": 8117,
      "16": 8118,
      "1 The ": 8119,
      "2 ": 8120,
      "8 ": 8121,
      "; to ": 8122,
      "; still ": 8123,
      "?\"": 8124,
      "AD": 8125,
      "AM ": 8126,
      "BE": 8127,
      "Ben": 8128,
      "Cor": 8129,
      "Dr": 8130,
      "Dam": 8131,
      "Ex": 8132,
      "Fin - ": 8133,
      "Gen": 8134,
      "Hos": 8135,
      "Him": 8136,
      "Holl": 8137,
      "I se": 8138,
      "Just ": 8139,
      "Li": 8140,
      "Land": 8141,
      "LY ": 8142,
      "Like ": 8143,
      "May ": 8144,
      "Mean": 8145,
      "Mapple ": 8146,
      "Mayh": 8147,
      "N ": 8148,
      "Nar": 8149,
      "Nor ": 8150,
      "Ow": 8151,
      "O , ": 8152,
      "Plin": 8153,
      "RU": 8154,
      "Rose ": 8155,
      "Sub": 8156,
      "So , ": 8157,
      "ST ": 8158,
      "Tis ": 8159,
      "UM": 8160,
      "Ven": 8161,
      "Will ": 8162,
      "Yar": 8163,
      "ae": 8164,
      "aho": 8165,
      "aflo": 8166,
      "bor ": 8167,
      "bs . ": 8168,
      "bar ": 8169,
      "bell": 8170,
      "bers ": 8171,
      "cos": 8172,
      "cet": 8173,
      "cub": 8174,
      "dil": 8175,
      "dle , ": 8176,
      "dish ": 8177,
      "eir ": 8178,
      "ey , ": 8179,
      "fan": 8180,
      "fy ": 8181,
      "fit ": 8182,
      "fits ": 8183,
      "fest": 8184,
      "fright ": 8185,
      "fitt": 8186,
      "faint ": 8187,
      "gon": 8188,
      "ging ": 8189,
      "gs , ": 8190,
      "gang": 8191,
      "gover": 8192,
      "gest": 8193,
      "hated ": 8194,
      "hate ": 8195,
      "hue ": 8196,
      "i ": 8197,
      "ial ": 8198,
      "ib ": 8199,
      "ibly ": 8200,
      "ither , ": 8201,
      "jur": 8202,
      "juggl": 8203,
      "kling ": 8204,
      "kish ": 8205,
      "kull ": 8206,
      "kings and ": 8207,
      "ls , ": 8208,
      "lain ": 8209,
      "lake ": 8210,
      "lingly ": 8211,
      "lo ! ": 8212,
      "lbs . ": 8213,
      "moul": 8214,
      "nap": 8215,
      "nest ": 8216,
      "nine ": 8217,
      "nay , ": 8218,
      "ox ": 8219,
      "pel": 8220,
      "pall": 8221,
      "pout ": 8222,
      "pent ": 8223,
      "pati": 8224,
      "piv": 8225,
      "peel": 8226,
      "patch": 8227,
      "rings ": 8228,
      "ross": 8229,
      "render ": 8230,
      "sou": 8231,
      "sle": 8232,
      "send ": 8233,
      "sudden ": 8234,
      "said , ": 8235,
      "tes": 8236,
      "t thou ": 8237,
      "twenty ": 8238,
      "u ": 8239,
      "use": 8240,
      "ught ": 8241,
      "uted ": 8242,
      "ufac": 8243,
      "utter ": 8244,
      "van": 8245,
      "vest": 8246,
      "vast": 8247,
      "vult": 8248,
      "wri": 8249,
      "wear ": 8250,
      "y this ": 8251,
      "ye , and ": 8252,
      "e -- ": 8253,
      " ti": 8254,
      " tast": 8255,
      " till": 8256,
      " touch": 8257,
      " touch ": 8258,
      "s and s": 8259,
      "s ; the ": 8260,
      " thro": 8261,
      " thunder": 8262,
      "inas": 8263,
      "inver": 8264,
      "invo": 8265,
      "inhal": 8266,
      "inside ": 8267,
      "indic": 8268,
      "indifferent ": 8269,
      "indifference ": 8270,
      "incarn": 8271,
      "eral ": 8272,
      "ery , ": 8273,
      "eries ": 8274,
      "er than the ": 8275,
      "onounc": 8276,
      "ender": 8277,
      "eness": 8278,
      "enci": 8279,
      "eness , and ": 8280,
      "ing sh": 8281,
      "ing still ": 8282,
      "aled ": 8283,
      "alas ": 8284,
      "alking ": 8285,
      "als and ": 8286,
      "orge ": 8287,
      "aris": 8288,
      "argu": 8289,
      "arriv": 8290,
      "of three ": 8291,
      "of time ": 8292,
      "of sea - ": 8293,
      "office ": 8294,
      "thing to ": 8295,
      "thick ": 8296,
      "ed no ": 8297,
      "ed her ": 8298,
      ". ..": 8299,
      " , W": 8300,
      " , a ": 8301,
      " , with ": 8302,
      " , you ": 8303,
      " , AND ": 8304,
      " sel": 8305,
      " sun ": 8306,
      " slowly ": 8307,
      "and in": 8308,
      "and by ": 8309,
      "and so ": 8310,
      "rel ": 8311,
      "ree , ": 8312,
      "requ": 8313,
      "repl": 8314,
      "resh": 8315,
      "rejo": 8316,
      "resear": 8317,
      "at it ": 8318,
      "at her ": 8319,
      "at hom": 8320,
      "stant": 8321,
      "stick": 8322,
      "a ' ": 8323,
      "a ' s ": 8324,
      "a word ": 8325,
      "omni": 8326,
      "els ": 8327,
      "el , and ": 8328,
      "elight ": 8329,
      "ely t": 8330,
      "why , ": 8331,
      "of un": 8332,
      "of water ": 8333,
      "of God ": 8334,
      "of his t": 8335,
      "of course ": 8336,
      "es a ": 8337,
      "es his ": 8338,
      "es it ": 8339,
      "es and s": 8340,
      "- dri": 8341,
      "- headed ": 8342,
      "- fashioned ": 8343,
      "- hearted ": 8344,
      "associ": 8345,
      "cha": 8346,
      "chol": 8347,
      "in S": 8348,
      "in most ": 8349,
      "in no ": 8350,
      "in general ": 8351,
      "in hand , ": 8352,
      "; ' ": 8353,
      "; and": 8354,
      "; one ": 8355,
      "; my ": 8356,
      "; here ": 8357,
      "; even ": 8358,
      "; he was ": 8359,
      "es the s": 8360,
      "esome ": 8361,
      "est , and ": 8362,
      "haun": 8363,
      "hame ": 8364,
      "haven ": 8365,
      " to you ": 8366,
      " to give ": 8367,
      " to leeward , ": 8368,
      "lime ": 8369,
      "list ": 8370,
      "liber": 8371,
      "is more ": 8372,
      "is but the ": 8373,
      "fores": 8374,
      "his s": 8375,
      "his un": 8376,
      "he were ": 8377,
      "he cri": 8378,
      "he must ": 8379,
      "he might ": 8380,
      "he cried ": 8381,
      "he went ": 8382,
      "it all ": 8383,
      "it was the ": 8384,
      "it must be ": 8385,
      "it has been ": 8386,
      "on him ": 8387,
      "on a s": 8388,
      "on deck , ": 8389,
      "iron , ": 8390,
      "itely ": 8391,
      "ism": 8392,
      "isle ": 8393,
      "embal": 8394,
      "ur ": 8395,
      "urb": 8396,
      "urrec": 8397,
      "urrah ": 8398,
      "uni": 8399,
      "unwar": 8400,
      "eds ": 8401,
      "edge ": 8402,
      "ossi": 8403,
      "beer ": 8404,
      "beware ": 8405,
      "of the S": 8406,
      "of the boat ": 8407,
      "s , all ": 8408,
      "bust": 8409,
      "busy ": 8410,
      "rippl": 8411,
      " . If ": 8412,
      "nostr": 8413,
      "I did ": 8414,
      "raz": 8415,
      "rack": 8416,
      "rail": 8417,
      "settle ": 8418,
      "ti ": 8419,
      "upward": 8420,
      "ama ": 8421,
      "amber ": 8422,
      "was re": 8423,
      "was in ": 8424,
      "was he ": 8425,
      "absor": 8426,
      "aboar": 8427,
      "absol": 8428,
      "abounding ": 8429,
      "diam": 8430,
      "did , ": 8431,
      "dived ": 8432,
      "dim , ": 8433,
      "ago , ": 8434,
      "aggreg": 8435,
      "-- as ": 8436,
      "-- why ": 8437,
      "quare ": 8438,
      " toil": 8439,
      " to the ship": 8440,
      "roduc": 8441,
      "boom": 8442,
      "all other ": 8443,
      "us to ": 8444,
      "ided ": 8445,
      "frost ": 8446,
      "intell": 8447,
      "introduc": 8448,
      "or ' s ": 8449,
      "or more ": 8450,
      "or five ": 8451,
      "aps": 8452,
      "apart": 8453,
      "one who ": 8454,
      "one of these ": 8455,
      "! A": 8456,
      "! Who ": 8457,
      "eeing ": 8458,
      "ent t": 8459,
      "entati": 8460,
      "entered ": 8461,
      "from the ship": 8462,
      "in the very ": 8463,
      "in the bow": 8464,
      "in the matter ": 8465,
      "in the open ": 8466,
      "in the boat ' s ": 8467,
      "in the act of ": 8468,
      "accur": 8469,
      "active ": 8470,
      "concl": 8471,
      "confin": 8472,
      "congeni": 8473,
      "compos": 8474,
      "per , ": 8475,
      "pertain": 8476,
      "persu": 8477,
      "pervad": 8478,
      "ectly ": 8479,
      "pled ": 8480,
      "plate ": 8481,
      "plement": 8482,
      "for him , ": 8483,
      "image ": 8484,
      "by a s": 8485,
      "ought the ": 8486,
      "polic": 8487,
      ", the other ": 8488,
      ", the boat ": 8489,
      ", the Captain ": 8490,
      ", the white ": 8491,
      ", the three ": 8492,
      "taff": 8493,
      "ble": 8494,
      "blin": 8495,
      "bling ": 8496,
      "bless ": 8497,
      "blew ": 8498,
      "blending ": 8499,
      "blasted ": 8500,
      "shr": 8501,
      "shook ": 8502,
      "shrou": 8503,
      "shut ": 8504,
      "shouted ": 8505,
      "umat": 8506,
      " , and also ": 8507,
      "e . What ": 8508,
      "e . There ": 8509,
      "e . A ": 8510,
      "e . In the ": 8511,
      "e . If ": 8512,
      ", then": 8513,
      ", there , ": 8514,
      "have to ": 8515,
      " stea": 8516,
      " stro": 8517,
      "Why , ": 8518,
      "morrow ": 8519,
      "es , but ": 8520,
      "es , which ": 8521,
      "had been s": 8522,
      "ety , ": 8523,
      "s . To ": 8524,
      "aye , and ": 8525,
      "were t": 8526,
      "were not ": 8527,
      "were it not ": 8528,
      "; and all ": 8529,
      "; and with ": 8530,
      "; and if ": 8531,
      "; and yet ": 8532,
      "deed , ": 8533,
      "him by ": 8534,
      "him down ": 8535,
      "? and ": 8536,
      "? He ": 8537,
      "ed , and s": 8538,
      "a sti": 8539,
      "a spec": 8540,
      "clam ": 8541,
      "flash ": 8542,
      "Thunder ": 8543,
      "spin": 8544,
      "spep": 8545,
      "sized ": 8546,
      "siogn": 8547,
      "worked ": 8548,
      "words , ": 8549,
      "now in ": 8550,
      "my soul , ": 8551,
      "harp": 8552,
      "hardy ": 8553,
      "me a ": 8554,
      "me in ": 8555,
      " to the deck": 8556,
      "e the s": 8557,
      "on the whale ": 8558,
      "on the other side ": 8559,
      "from which ": 8560,
      "from it , ": 8561,
      "from him , ": 8562,
      ".\" The ": 8563,
      ".\" CHAPTER 1": 8564,
      "-- so ": 8565,
      " there ! ": 8566,
      "modic": 8567,
      ", that when ": 8568,
      "no man ": 8569,
      "no other ": 8570,
      "open the ": 8571,
      "lef": 8572,
      "by this ": 8573,
      "able - ": 8574,
      "which are ": 8575,
      "Ant": 8576,
      "end the ": 8577,
      "nowy ": 8578,
      "propri": 8579,
      "warri": 8580,
      "credit": 8581,
      "we saw ": 8582,
      "more or ": 8583,
      "ers , the ": 8584,
      "heard , ": 8585,
      "hearty ": 8586,
      "heard the ": 8587,
      "outing ": 8588,
      "out to the ": 8589,
      "outland": 8590,
      "viv": 8591,
      "vial ": 8592,
      "from the t": 8593,
      "when it ": 8594,
      "when we ": 8595,
      "ailed ": 8596,
      "man s": 8597,
      "man that ": 8598,
      "manufac": 8599,
      "pronounc": 8600,
      "matters ": 8601,
      "Ahab had ": 8602,
      "us ; ": 8603,
      "our own ": 8604,
      "glor": 8605,
      "glass": 8606,
      "queer": 8607,
      "' t s": 8608,
      "doom": 8609,
      " show": 8610,
      "and that the ": 8611,
      "and therefore ": 8612,
      "!\" and ": 8613,
      "of sperm ": 8614,
      "as the great ": 8615,
      "cris": 8616,
      "crossed ": 8617,
      "ivor": 8618,
      "iver ": 8619,
      "your s": 8620,
      "ackle ": 8621,
      "some sort of ": 8622,
      "so to ": 8623,
      "present , ": 8624,
      "with the whale ": 8625,
      "avag": 8626,
      "avage , ": 8627,
      "crimin": 8628,
      "must be the ": 8629,
      "Cape of ": 8630,
      "ing something ": 8631,
      "assail": 8632,
      ". \" The ": 8633,
      "for the most ": 8634,
      "for the time , ": 8635,
      "for the purpose ": 8636,
      "father": 8637,
      "men were ": 8638,
      "corn ": 8639,
      "dispos": 8640,
      "disorder": 8641,
      "fierc": 8642,
      "upon it ": 8643,
      "swear": 8644,
      "swallow ": 8645,
      "' s too ": 8646,
      "bring ": 8647,
      "brow , ": 8648,
      "brought to ": 8649,
      "it , but ": 8650,
      "can tell ": 8651,
      "ts are ": 8652,
      ". Al": 8653,
      ". Aye , ": 8654,
      "loom": 8655,
      "loqu": 8656,
      "logg": 8657,
      "down upon the ": 8658,
      "where they ": 8659,
      "hero": 8660,
      "herself ": 8661,
      "her sid": 8662,
      "brew": 8663,
      "breach": 8664,
      "least": 8665,
      "leak ": 8666,
      "leading ": 8667,
      "may have ": 8668,
      "ing to a ": 8669,
      "ing to be ": 8670,
      "obst": 8671,
      "oblig": 8672,
      "of a whale ": 8673,
      "pper ": 8674,
      "into the air ": 8675,
      ". These ": 8676,
      " . \" And ": 8677,
      " . \" He ": 8678,
      " . \" There ": 8679,
      "comment": 8680,
      "commenc": 8681,
      "counted ": 8682,
      "- sail": 8683,
      "- ship": 8684,
      "curiously ": 8685,
      "desi": 8686,
      "did I ": 8687,
      "Captain ' s ": 8688,
      "upon the sea ": 8689,
      "go on ": 8690,
      "phras": 8691,
      "resurrec": 8692,
      "how to ": 8693,
      "ful and ": 8694,
      "mercy ": 8695,
      "belly ": 8696,
      "bellies ": 8697,
      "applic": 8698,
      "Ahab . \" ": 8699,
      "much like ": 8700,
      "again and ": 8701,
      "after all , ": 8702,
      "Pequod": 8703,
      "It is ": 8704,
      "shipped ": 8705,
      "larboard ": 8706,
      "night - ": 8707,
      "calls ": 8708,
      "calling ": 8709,
      ". From ": 8710,
      "round his ": 8711,
      "never yet ": 8712,
      "almost as ": 8713,
      "it was , ": 8714,
      "harpoons , and ": 8715,
      "atten": 8716,
      " that to ": 8717,
      "bowed ": 8718,
      "What ' s that ": 8719,
      "away with ": 8720,
      "made of ": 8721,
      "brother": 8722,
      "low , ": 8723,
      ",\" and ": 8724,
      "ship , the ": 8725,
      "wonted ": 8726,
      "well known": 8727,
      "high , ": 8728,
      "highly ": 8729,
      "Stubb was ": 8730,
      "de of ": 8731,
      "without a ": 8732,
      "denti": 8733,
      "longitud": 8734,
      "hump , ": 8735,
      "ye , ye ": 8736,
      "heads , ": 8737,
      "headsman ": 8738,
      ". It is a ": 8739,
      "faces ": 8740,
      "harpooneer": 8741,
      "berth ": 8742,
      "easy , ": 8743,
      "jok": 8744,
      "joyou": 8745,
      "joke ": 8746,
      "water ; ": 8747,
      "but to ": 8748,
      "far more ": 8749,
      "passag": 8750,
      "rope , ": 8751,
      "of that sort ": 8752,
      "incess": 8753,
      "incidentally ": 8754,
      "begin ": 8755,
      "mile ": 8756,
      "peck": 8757,
      "sky ": 8758,
      "skin , ": 8759,
      "each other": 8760,
      "mutter": 8761,
      "landsmen ": 8762,
      " that the whale ": 8763,
      "hadow": 8764,
      "whaleman , ": 8765,
      "afterwards , ": 8766,
      "part of his ": 8767,
      "line is ": 8768,
      "superi": 8769,
      "superior ": 8770,
      "AND": 8771,
      " than a ": 8772,
      "will tell ": 8773,
      "God ' s s": 8774,
      "feels ": 8775,
      "feel the ": 8776,
      "return ": 8777,
      "retreat": 8778,
      "about to ": 8779,
      "about the s": 8780,
      "about this ": 8781,
      "sort , ": 8782,
      "reasons ": 8783,
      "benev": 8784,
      "floats ": 8785,
      "mist ": 8786,
      "upon that ": 8787,
      "upon their ": 8788,
      "upon some ": 8789,
      ",\" said I ": 8790,
      "strik": 8791,
      "spect": 8792,
      ". On ": 8793,
      "hamm": 8794,
      "draw ": 8795,
      " . At ": 8796,
      "ational ": 8797,
      "devils ": 8798,
      "develop": 8799,
      "frig": 8800,
      "frighted ": 8801,
      "surface ": 8802,
      "seen him ": 8803,
      "emple ": 8804,
      "poor fellow ": 8805,
      ", there are ": 8806,
      "meaning ": 8807,
      "means of ": 8808,
      " , as if": 8809,
      "strain ": 8810,
      "both hands ": 8811,
      "innermost ": 8812,
      ", then , that ": 8813,
      "side by ": 8814,
      "whaling - ": 8815,
      "whaling voyage ": 8816,
      "considering that ": 8817,
      "when the ship ": 8818,
      "don ' t know ": 8819,
      "chase to ": 8820,
      "ossing ": 8821,
      "flukes , ": 8822,
      "infid": 8823,
      "infernal ": 8824,
      "inferior ": 8825,
      " thee , thou ": 8826,
      "possib": 8827,
      "Moby Dick , ": 8828,
      "late , ": 8829,
      "complex": 8830,
      "weather": 8831,
      "weaving ": 8832,
      "weapon ": 8833,
      "advant": 8834,
      "vessel , ": 8835,
      "creatures , ": 8836,
      " to turn ": 8837,
      "named ": 8838,
      "mortal": 8839,
      "decks ": 8840,
      "high and ": 8841,
      "high up ": 8842,
      "coloss": 8843,
      "palp": 8844,
      "bony ": 8845,
      "bones of ": 8846,
      "circumfer": 8847,
      "murder ": 8848,
      ". What": 8849,
      "is a very ": 8850,
      "because the ": 8851,
      "divin": 8852,
      "fool": 8853,
      "fellow , ": 8854,
      "particularly ": 8855,
      "ONG": 8856,
      "wooll": 8857,
      ", that though ": 8858,
      "business , ": 8859,
      "did this ": 8860,
      "present day ": 8861,
      "four or five ": 8862,
      "steer": 8863,
      "EN ": 8864,
      "hug": 8865,
      "walk": 8866,
      "gentleman": 8867,
      "beach": 8868,
      "as it were ": 8869,
      "does he ": 8870,
      "fool ": 8871,
      "say that ": 8872,
      "saying , ": 8873,
      "foreign ": 8874,
      "it ' s a ": 8875,
      " . Now , ": 8876,
      "days and ": 8877,
      " somewhere ": 8878,
      "earnest ": 8879,
      "Perhap": 8880,
      "hour , ": 8881,
      "mounted ": 8882,
      "; and though ": 8883,
      "00 ": 8884,
      " . His ": 8885,
      "close to the ": 8886,
      "Pip ' s ": 8887,
      "Pip ! ": 8888,
      "hope ": 8889,
      "us , or the ": 8890,
      ". CHAPTER 8": 8891,
      " . It is ": 8892,
      "Flask ' s ": 8893,
      "fifteen ": 8894,
      "malign": 8895,
      " . ( OCTAV": 8896,
      "royal": 8897,
      "Right Whal": 8898,
      "having been ": 8899,
      "homage ": 8900,
      ". Con": 8901,
      "short": 8902,
      "fasten": 8903,
      "ivory leg ": 8904,
      "truth ": 8905,
      "ed with s": 8906,
      "chance to ": 8907,
      "because he ": 8908,
      "leviathan , ": 8909,
      "rest of the ": 8910,
      "changed ": 8911,
      "everywhere ": 8912,
      "everybody ": 8913,
      "woods ": 8914,
      "carpenter ' s ": 8915,
      "measured ": 8916,
      "nigh to ": 8917,
      "peculiarities ": 8918,
      "vessel ' s ": 8919,
      "replied ": 8920,
      "excited ": 8921,
      "parts of ": 8922,
      "Arsac": 8923,
      "spot ": 8924,
      "spoken ": 8925,
      "not to speak ": 8926,
      "invested ": 8927,
      "investig": 8928,
      "received the ": 8929,
      "shake ": 8930,
      "escaped ": 8931,
      "occasion ": 8932,
      "as if to ": 8933,
      "! So ": 8934,
      "officer ": 8935,
      "intervals , ": 8936,
      "bottom of the ": 8937,
      "bottom of the sea ": 8938,
      "OUT": 8939,
      " thou , ": 8940,
      "he turn": 8941,
      "between the two ": 8942,
      "consciously ": 8943,
      "conscienti": 8944,
      "lurking ": 8945,
      "lurks ": 8946,
      "narrow ": 8947,
      "narrative ": 8948,
      "ystem": 8949,
      "attering ": 8950,
      "; while the ": 8951,
      "ableness ": 8952,
      "not so much ": 8953,
      "Greenland or ": 8954,
      "expression ": 8955,
      "making a ": 8956,
      "northern ": 8957,
      "enough , ": 8958,
      "described ": 8959,
      "mystical ": 8960,
      "jacket , ": 8961,
      "comparatively ": 8962,
      "eternally ": 8963,
      " short , ": 8964,
      "Nantucketer , ": 8965,
      "ROW": 8966,
      "ladies ": 8967,
      "mind that ": 8968,
      "ostentati": 8969,
      "seamen ": 8970,
      "ouch of ": 8971,
      "company , ": 8972,
      "paused ": 8973,
      "knocking ": 8974,
      "mutin": 8975,
      "news ": 8976,
      "essive ": 8977,
      "e . So ": 8978,
      "discovery ": 8979,
      "While the ": 8980,
      ". On the ": 8981,
      "exceeding ": 8982,
      "frozen ": 8983,
      "encountered ": 8984,
      "conceit ": 8985,
      "authority ": 8986,
      "incredible ": 8987,
      "accompani": 8988,
      "according to the ": 8989,
      "s . Now ": 8990,
      "sprink": 8991,
      "strongly ": 8992,
      "possibly be ": 8993,
      "colour , ": 8994,
      "182": 8995,
      "collec": 8996,
      "snapp": 8997,
      "smoking ": 8998,
      "alternat": 8999,
      "island of ": 9000,
      "I will not ": 9001,
      "e than the ": 9002,
      "apparition ": 9003,
      "across ": 9004,
      "ICE ": 9005,
      "parts of the ": 9006,
      "falling ": 9007,
      "scarcely ": 9008,
      "roared ": 9009,
      "condition": 9010,
      "flames ": 9011,
      "contrast": 9012,
      "borne ": 9013,
      "loudly ": 9014,
      "included ": 9015,
      "it seems , ": 9016,
      "emporarily ": 9017,
      "be it said ": 9018,
      "better than": 9019,
      "evinced ": 9020,
      "entered the ": 9021,
      "popular ": 9022,
      "organ ": 9023,
      "combin": 9024,
      "movement ": 9025,
      "special ": 9026,
      "!-- there ": 9027,
      "Good H": 9028,
      "lamp ": 9029,
      "nailed ": 9030,
      "sense ": 9031,
      "stretch": 9032,
      "immediate ": 9033,
      ", through ": 9034,
      "corpse ": 9035,
      "vocation ": 9036,
      "desire to ": 9037,
      "descending ": 9038,
      "bottomless ": 9039,
      "Death ": 9040,
      "fowl ": 9041,
      "bestowed ": 9042,
      "suspended ": 9043,
      "Atlantic , ": 9044,
      "boldly ": 9045,
      "careful": 9046,
      "of such a ": 9047,
      ". CHAPTER 10": 9048,
      "OOK I . ( ": 9049,
      "fathoms ": 9050,
      "Ishmael , ": 9051,
      "perpendicular ": 9052,
      "perpendicularly ": 9053,
      "Porpois": 9054,
      "whirling ": 9055,
      "ousands of ": 9056,
      "South Sea ": 9057,
      "waif ": 9058,
      "influence ": 9059,
      "cheek ": 9060,
      "hailed the ": 9061,
      "perfectly ": 9062,
      "projecting ": 9063,
      "attached to the ": 9064,
      "relieved ": 9065,
      "intelligence ": 9066,
      ",' says ": 9067,
      "drugged ": 9068,
      "ultimate ": 9069,
      "somehow , ": 9070,
      "pulpit ": 9071,
      "pitchpol": 9072,
      "seeking to ": 9073,
      "lantern": 9074,
      "Noah ": 9075,
      "Spouter ": 9076,
      "navig": 9077,
      "vindic": 9078,
      "monkey - ": 9079,
      "John ": 9080,
      "177": 9081,
      "Spanish ": 9082,
      "hideous ": 9083,
      "wish to ": 9084,
      "secured": 9085,
[...]
